{
  "version": "1.0",
  "truncation": null,
  "padding": null,
  "added_tokens": [
    {
      "id": 0,
      "content": "<|pad|>",
      "single_word": false,
      "lstrip": false,
      "rstrip": false,
      "normalized": false,
      "special": true
    },
    {
      "id": 1,
      "content": "<|bos|>",
      "single_word": false,
      "lstrip": false,
      "rstrip": false,
      "normalized": false,
      "special": true
    },
    {
      "id": 2,
      "content": "<|eos|>",
      "single_word": false,
      "lstrip": false,
      "rstrip": false,
      "normalized": false,
      "special": true
    },
    {
      "id": 3,
      "content": "<|unk|>",
      "single_word": false,
      "lstrip": false,
      "rstrip": false,
      "normalized": false,
      "special": true
    }
  ],
  "normalizer": null,
  "pre_tokenizer": {
    "type": "ByteLevel",
    "add_prefix_space": true,
    "trim_offsets": true,
    "use_regex": true
  },
  "post_processor": null,
  "decoder": {
    "type": "ByteLevel",
    "add_prefix_space": true,
    "trim_offsets": true,
    "use_regex": true
  },
  "model": {
    "type": "BPE",
    "dropout": null,
    "unk_token": null,
    "continuing_subword_prefix": null,
    "end_of_word_suffix": null,
    "fuse_unk": false,
    "byte_fallback": false,
    "ignore_merges": false,
    "vocab": {
      "<|pad|>": 0,
      "<|bos|>": 1,
      "<|eos|>": 2,
      "<|unk|>": 3,
      "!": 4,
      "\"": 5,
      "#": 6,
      "$": 7,
      "%": 8,
      "&": 9,
      "'": 10,
      "(": 11,
      ")": 12,
      "*": 13,
      "+": 14,
      ",": 15,
      "-": 16,
      ".": 17,
      "/": 18,
      "0": 19,
      "1": 20,
      "2": 21,
      "3": 22,
      "4": 23,
      "5": 24,
      "6": 25,
      "7": 26,
      "8": 27,
      "9": 28,
      ":": 29,
      ";": 30,
      "<": 31,
      "=": 32,
      ">": 33,
      "?": 34,
      "@": 35,
      "A": 36,
      "B": 37,
      "C": 38,
      "D": 39,
      "E": 40,
      "F": 41,
      "G": 42,
      "H": 43,
      "I": 44,
      "J": 45,
      "K": 46,
      "L": 47,
      "M": 48,
      "N": 49,
      "O": 50,
      "P": 51,
      "Q": 52,
      "R": 53,
      "S": 54,
      "T": 55,
      "U": 56,
      "V": 57,
      "W": 58,
      "X": 59,
      "Y": 60,
      "Z": 61,
      "[": 62,
      "\\": 63,
      "]": 64,
      "^": 65,
      "_": 66,
      "`": 67,
      "a": 68,
      "b": 69,
      "c": 70,
      "d": 71,
      "e": 72,
      "f": 73,
      "g": 74,
      "h": 75,
      "i": 76,
      "j": 77,
      "k": 78,
      "l": 79,
      "m": 80,
      "n": 81,
      "o": 82,
      "p": 83,
      "q": 84,
      "r": 85,
      "s": 86,
      "t": 87,
      "u": 88,
      "v": 89,
      "w": 90,
      "x": 91,
      "y": 92,
      "z": 93,
      "{": 94,
      "|": 95,
      "}": 96,
      "~": 97,
      "¡": 98,
      "¢": 99,
      "£": 100,
      "¤": 101,
      "¥": 102,
      "¦": 103,
      "§": 104,
      "¨": 105,
      "©": 106,
      "ª": 107,
      "«": 108,
      "¬": 109,
      "®": 110,
      "¯": 111,
      "°": 112,
      "±": 113,
      "²": 114,
      "³": 115,
      "´": 116,
      "µ": 117,
      "¶": 118,
      "·": 119,
      "¸": 120,
      "¹": 121,
      "º": 122,
      "»": 123,
      "¼": 124,
      "½": 125,
      "¾": 126,
      "¿": 127,
      "À": 128,
      "Á": 129,
      "Â": 130,
      "Ã": 131,
      "Ä": 132,
      "Å": 133,
      "Æ": 134,
      "Ç": 135,
      "È": 136,
      "É": 137,
      "Ê": 138,
      "Ë": 139,
      "Ì": 140,
      "Í": 141,
      "Î": 142,
      "Ï": 143,
      "Ð": 144,
      "Ñ": 145,
      "Ò": 146,
      "Ó": 147,
      "Ô": 148,
      "Õ": 149,
      "Ö": 150,
      "×": 151,
      "Ø": 152,
      "Ù": 153,
      "Ú": 154,
      "Û": 155,
      "Ü": 156,
      "Ý": 157,
      "Þ": 158,
      "ß": 159,
      "à": 160,
      "á": 161,
      "â": 162,
      "ã": 163,
      "ä": 164,
      "å": 165,
      "æ": 166,
      "ç": 167,
      "è": 168,
      "é": 169,
      "ê": 170,
      "ë": 171,
      "ì": 172,
      "í": 173,
      "î": 174,
      "ï": 175,
      "ð": 176,
      "ñ": 177,
      "ò": 178,
      "ó": 179,
      "ô": 180,
      "õ": 181,
      "ö": 182,
      "÷": 183,
      "ø": 184,
      "ù": 185,
      "ú": 186,
      "û": 187,
      "ü": 188,
      "ý": 189,
      "þ": 190,
      "ÿ": 191,
      "Ā": 192,
      "ā": 193,
      "Ă": 194,
      "ă": 195,
      "Ą": 196,
      "ą": 197,
      "Ć": 198,
      "ć": 199,
      "Ĉ": 200,
      "ĉ": 201,
      "Ċ": 202,
      "ċ": 203,
      "Č": 204,
      "č": 205,
      "Ď": 206,
      "ď": 207,
      "Đ": 208,
      "đ": 209,
      "Ē": 210,
      "ē": 211,
      "Ĕ": 212,
      "ĕ": 213,
      "Ė": 214,
      "ė": 215,
      "Ę": 216,
      "ę": 217,
      "Ě": 218,
      "ě": 219,
      "Ĝ": 220,
      "ĝ": 221,
      "Ğ": 222,
      "ğ": 223,
      "Ġ": 224,
      "ġ": 225,
      "Ģ": 226,
      "ģ": 227,
      "Ĥ": 228,
      "ĥ": 229,
      "Ħ": 230,
      "ħ": 231,
      "Ĩ": 232,
      "ĩ": 233,
      "Ī": 234,
      "ī": 235,
      "Ĭ": 236,
      "ĭ": 237,
      "Į": 238,
      "į": 239,
      "İ": 240,
      "ı": 241,
      "Ĳ": 242,
      "ĳ": 243,
      "Ĵ": 244,
      "ĵ": 245,
      "Ķ": 246,
      "ķ": 247,
      "ĸ": 248,
      "Ĺ": 249,
      "ĺ": 250,
      "Ļ": 251,
      "ļ": 252,
      "Ľ": 253,
      "ľ": 254,
      "Ŀ": 255,
      "ŀ": 256,
      "Ł": 257,
      "ł": 258,
      "Ń": 259,
      "he": 260,
      "Ġt": 261,
      "Ġa": 262,
      "Ġs": 263,
      "Ġw": 264,
      "nd": 265,
      "Ġthe": 266,
      "ed": 267,
      "Ġand": 268,
      "Ġto": 269,
      "in": 270,
      "Ġb": 271,
      "Ġwa": 272,
      "re": 273,
      "Ġh": 274,
      "it": 275,
      "ou": 276,
      "Ġf": 277,
      "er": 278,
      "Ġl": 279,
      "Ġd": 280,
      "Ġc": 281,
      "Ġwas": 282,
      "Ġhe": 283,
      "Ġm": 284,
      "Ġp": 285,
      "ĠT": 286,
      "is": 287,
      "ay": 288,
      "om": 289,
      "on": 290,
      "ar": 291,
      "ing": 292,
      "Ġg": 293,
      "an": 294,
      "il": 295,
      "id": 296,
      "at": 297,
      "Ġn": 298,
      "en": 299,
      "im": 300,
      "ĠS": 301,
      "Ġsa": 302,
      "Ġha": 303,
      "or": 304,
      "ĠThe": 305,
      "ll": 306,
      "le": 307,
      "ĠH": 308,
      "Ġit": 309,
      "Ġo": 310,
      "Ġth": 311,
      "Ġher": 312,
      "ir": 313,
      "et": 314,
      "ĠShe": 315,
      "ĠHe": 316,
      "On": 317,
      "Ġin": 318,
      "ot": 319,
      "Ġu": 320,
      "ce": 321,
      "ver": 322,
      "ow": 323,
      "ut": 324,
      "am": 325,
      "es": 326,
      "ck": 327,
      "Ġy": 328,
      "ĠOn": 329,
      "ld": 330,
      "ig": 331,
      "ily": 332,
      "Ġe": 333,
      "oo": 334,
      "ĠThey": 335,
      "Ġst": 336,
      "Ġr": 337,
      "ith": 338,
      "ĠL": 339,
      "Ġday": 340,
      "Ġshe": 341,
      "Ġwith": 342,
      "Ġsaid": 343,
      "Ġbe": 344,
      "ke": 345,
      "Ġpl": 346,
      "Ġup": 347,
      "pp": 348,
      "Ġ\"": 349,
      "ĠI": 350,
      "ked": 351,
      "Ġon": 352,
      "very": 353,
      "nt": 354,
      "Ġyou": 355,
      "ve": 356,
      "ri": 357,
      "Ġhis": 358,
      "Ġof": 359,
      "Ġso": 360,
      "Ġthere": 361,
      "Ġplay": 362,
      "ĠLily": 363,
      "ad": 364,
      "tle": 365,
      "ss": 366,
      "ime": 367,
      "Ġthat": 368,
      "Ġtime": 369,
      "Ġhad": 370,
      "my": 371,
      "Ġli": 372,
      "Ġmom": 373,
      "Ġwe": 374,
      "Ġthey": 375,
      "ĠB": 376,
      "ittle": 377,
      "ĠOnce": 378,
      "Ġlittle": 379,
      "'s": 380,
      "st": 381,
      "un": 382,
      "ould": 383,
      "Ġwant": 384,
      "out": 385,
      "Ġfor": 386,
      "se": 387,
      "ist": 388,
      "Ġsh": 389,
      "ant": 390,
      "ent": 391,
      "ch": 392,
      "Ġvery": 393,
      "Ġhapp": 394,
      "ly": 395,
      "Ġbig": 396,
      "Ġwh": 397,
      "Ġupon": 398,
      "all": 399,
      "ound": 400,
      "end": 401,
      "The": 402,
      "ved": 403,
      "her": 404,
      "Ġne": 405,
      "Ġdo": 406,
      "ser": 407,
      "ĠM": 408,
      "Ġsaw": 409,
      "Ġsom": 410,
      "al": 411,
      "ht": 412,
      "Ġlo": 413,
      "el": 414,
      "Ġk": 415,
      "ĠIt": 416,
      "Ġnot": 417,
      "Ġbut": 418,
      "Ġfri": 419,
      "Ġfriend": 420,
      "ide": 421,
      "ĠU": 422,
      "istant": 423,
      "ra": 424,
      "Ġan": 425,
      "ssistant": 426,
      "Assistant": 427,
      "ĠUser": 428,
      "ĠĊ": 429,
      "Ġre": 430,
      "irl": 431,
      "Ġas": 432,
      "Ġgirl": 433,
      "Ġsm": 434,
      "ĠTim": 435,
      "Ġbo": 436,
      "Ġhappy": 437,
      "Ġis": 438,
      "Ġwere": 439,
      "ake": 440,
      "Ġnam": 441,
      "ack": 442,
      "Ġwanted": 443,
      "ry": 444,
      "Ġloo": 445,
      "ĠOne": 446,
      "'t": 447,
      "ore": 448,
      "ec": 449,
      "ell": 450,
      "Ġgo": 451,
      "Ġme": 452,
      "Ġnamed": 453,
      ".\"": 454,
      "ug": 455,
      "ter": 456,
      "Ġout": 457,
      "!\"": 458,
      "ard": 459,
      "Ġhim": 460,
      "Ġse": 461,
      "Ġare": 462,
      "Ġtoo": 463,
      "Ġj": 464,
      "Ġsp": 465,
      "Ġloved": 466,
      "ĠA": 467,
      "hen": 468,
      "ind": 469,
      "hing": 470,
      "ill": 471,
      "ĠJ": 472,
      "Ġex": 473,
      "Ġat": 474,
      "Ġwent": 475,
      "Ġcould": 476,
      "ur": 477,
      "way": 478,
      "fu": 479,
      "Ġthem": 480,
      "Ġtheir": 481,
      "round": 482,
      "ark": 483,
      "Ġdid": 484,
      "ood": 485,
      "art": 486,
      "Ġfriends": 487,
      "ic": 488,
      "ĠW": 489,
      "ĠBen": 490,
      "are": 491,
      "um": 492,
      "Ġhave": 493,
      "ĠTom": 494,
      "ain": 495,
      "ĠTimmy": 496,
      "Ġsmil": 497,
      "hed": 498,
      "Ġall": 499,
      "ight": 500,
      "lp": 501,
      "one": 502,
      "ful": 503,
      "side": 504,
      "Ġboy": 505,
      "rom": 506,
      "ome": 507,
      "Ġhelp": 508,
      "Ġcl": 509,
      "Ġsomet": 510,
      "Ġkn": 511,
      "?\"": 512,
      "Ġtoy": 513,
      "Ġcan": 514,
      "Ġasked": 515,
      "Ġfun": 516,
      "oug": 517,
      "Ġman": 518,
      "Ġro": 519,
      "Ġaround": 520,
      "Ġno": 521,
      "Ġsomething": 522,
      "Ġal": 523,
      "hat": 524,
      "ick": 525,
      "Ġlike": 526,
      "Ġsc": 527,
      "Ġwould": 528,
      "Ġle": 529,
      "Ġback": 530,
      "Ġta": 531,
      "Ġsee": 532,
      "Ġbr": 533,
      "Ġbir": 534,
      "Ġlooked": 535,
      "op": 536,
      "ame": 537,
      "Ġsay": 538,
      "Ġsome": 539,
      "elt": 540,
      "Ġpark": 541,
      "ong": 542,
      "ure": 543,
      "Ġbird": 544,
      "Ġfelt": 545,
      "Ġstart": 546,
      "Ġwho": 547,
      "king": 548,
      "You": 549,
      "ie": 550,
      "ree": 551,
      "ice": 552,
      "ings": 553,
      "One": 554,
      "Ġfa": 555,
      "Ġsmiled": 556,
      "get": 557,
      "dd": 558,
      "Ġmake": 559,
      "Ġliked": 560,
      "Ġwor": 561,
      "own": 562,
      "Ġwhat": 563,
      "ited": 564,
      "Ġco": 565,
      "ĠBut": 566,
      "Ġstarted": 567,
      "ade": 568,
      "Ġcar": 569,
      "Ġab": 570,
      "Ġexc": 571,
      "Ġgood": 572,
      "ag": 573,
      "Ġfe": 574,
      "Ġran": 575,
      "Ġplaying": 576,
      "Ġwal": 577,
      "if": 578,
      "Ã¢": 579,
      "Ġdec": 580,
      "gether": 581,
      "âĤ": 582,
      "âĤ¬": 583,
      "Ġmade": 584,
      "ared": 585,
      "as": 586,
      "ĠE": 587,
      "oud": 588,
      "Ġwhen": 589,
      "Ġput": 590,
      "Ġaway": 591,
      "Ġfound": 592,
      "Ġnew": 593,
      ",\"": 594,
      "Ġsad": 595,
      "Ġtogether": 596,
      "ook": 597,
      "Ġfl": 598,
      "Ġag": 599,
      "ro": 600,
      "ther": 601,
      "Ġmu": 602,
      "ĠC": 603,
      "Ġfrom": 604,
      "pl": 605,
      "Ġdecid": 606,
      "Ġabout": 607,
      "Ġexcited": 608,
      "est": 609,
      "Ġdecided": 610,
      "Ġsays": 611,
      "ened": 612,
      "Ġother": 613,
      "ep": 614,
      "ried": 615,
      "Ġch": 616,
      "Ġla": 617,
      "pped": 618,
      "ought": 619,
      "ach": 620,
      "Lily": 621,
      "Ġsw": 622,
      "ue": 623,
      "ny": 624,
      "Ġthings": 625,
      "ally": 626,
      "ĠYou": 627,
      "Ġgot": 628,
      "ous": 629,
      "uck": 630,
      "Ġget": 631,
      "Ġhome": 632,
      "Ġthen": 633,
      "Ġoutside": 634,
      "Ġevery": 635,
      "Ġcame": 636,
      "Ġbl": 637,
      "ouse": 638,
      "ble": 639,
      "Ġstor": 640,
      "ax": 641,
      "Ġbec": 642,
      "Ġhug": 643,
      "Ġone": 644,
      "Ġfind": 645,
      "Ġagain": 646,
      "Ġdog": 647,
      "udd": 648,
      "Ġmommy": 649,
      "na": 650,
      "Ġpr": 651,
      "Ġtoys": 652,
      "Ġdad": 653,
      "Ġdown": 654,
      "ĠTell": 655,
      "ave": 656,
      "Ġv": 657,
      "ĠD": 658,
      "qu": 659,
      "Ġdidn": 660,
      "Ġlot": 661,
      "Ġtree": 662,
      "ite": 663,
      "ara": 664,
      "Ġscared": 665,
      "Ġgra": 666,
      "ers": 667,
      "Ġold": 668,
      "us": 669,
      "eci": 670,
      "ways": 671,
      "Ġalways": 672,
      "Ġfeel": 673,
      "ĠMom": 674,
      "Ġpre": 675,
      "Ġball": 676,
      "ĠSam": 677,
      "nna": 678,
      "Ġtook": 679,
      "Ġpo": 680,
      "Ġcare": 681,
      "ust": 682,
      "Ġlook": 683,
      "bb": 684,
      "fe": 685,
      "Ġthought": 686,
      "Ġspeci": 687,
      "Ġspecial": 688,
      "ap": 689,
      "our": 690,
      "Ġyour": 691,
      "Ġke": 692,
      "ĠMax": 693,
      "Ġstory": 694,
      "ĠCan": 695,
      "ise": 696,
      "udden": 697,
      "Ġcat": 698,
      "Ġtw": 699,
      "Ġint": 700,
      "Ġho": 701,
      "nder": 702,
      "au": 703,
      "Ġmy": 704,
      "ang": 705,
      "ĠF": 706,
      "uddenly": 707,
      "ĠEvery": 708,
      "Ġtake": 709,
      "ched": 710,
      "arn": 711,
      "Ġpe": 712,
      "Ġkne": 713,
      "Ġhouse": 714,
      "ty": 715,
      "They": 716,
      "Ġthan": 717,
      "Ġknow": 718,
      "ĠWhat": 719,
      "ia": 720,
      "Ġsun": 721,
      "Ġrun": 722,
      "ma": 723,
      "ace": 724,
      "Ġsk": 725,
      "Ġwill": 726,
      "Ġtr": 727,
      "ive": 728,
      "Ġsl": 729,
      "Ġshow": 730,
      "Ġhow": 731,
      "ause": 732,
      "Ġexpl": 733,
      "ĠAnna": 734,
      "Ġmore": 735,
      "ĠSara": 736,
      "Ġlaug": 737,
      "Ġlearn": 738,
      "Ġmuch": 739,
      "fter": 740,
      "ish": 741,
      "Ġknew": 742,
      "Ġpret": 743,
      "Ġany": 744,
      "and": 745,
      "Ġeat": 746,
      "ink": 747,
      "Ġmo": 748,
      "But": 749,
      "reat": 750,
      "Ġbecause": 751,
      "ump": 752,
      "Ġsmall": 753,
      "Ġop": 754,
      "Ġshare": 755,
      "Ġmany": 756,
      "xt": 757,
      "Ġtried": 758,
      "Ġroom": 759,
      "Ġor": 760,
      "Ġinside": 761,
      "Ġwater": 762,
      "Ġover": 763,
      "Ġtold": 764,
      "Ġclo": 765,
      "Ġcouldn": 766,
      "Ġinto": 767,
      "dy": 768,
      "Ġheard": 769,
      "Ġpick": 770,
      "Ġhand": 771,
      "ged": 772,
      "Ġsor": 773,
      "Ġbox": 774,
      "Ġcall": 775,
      "Ġstr": 776,
      "ĠJack": 777,
      "here": 778,
      "other": 779,
      "ven": 780,
      "Ġcom": 781,
      "Ġtale": 782,
      "Ġnext": 783,
      "ob": 784,
      "Ġgave": 785,
      "ate": 786,
      "lf": 787,
      "Ġif": 788,
      "ile": 789,
      "Ġbu": 790,
      "ĠJo": 791,
      "Ġwat": 792,
      "Ġlived": 793,
      "ion": 794,
      "Ġen": 795,
      "Ġlong": 796,
      "Ġqu": 797,
      "Ġbear": 798,
      "Ġanim": 799,
      "Ġanimal": 800,
      "ak": 801,
      "ess": 802,
      "ear": 803,
      "uc": 804,
      "Ġplayed": 805,
      "Ġnever": 806,
      "Ġthis": 807,
      "Ġgard": 808,
      "ank": 809,
      "Ġgarden": 810,
      "Ġnice": 811,
      "ild": 812,
      "Ġneed": 813,
      "ough": 814,
      "Ġfo": 815,
      "Ġsorry": 816,
      "ving": 817,
      "ine": 818,
      "Ġproud": 819,
      "etter": 820,
      "Ġeach": 821,
      "Ġdre": 822,
      "iz": 823,
      "oth": 824,
      "by": 825,
      "Ġsky": 826,
      "Mom": 827,
      "Ġtry": 828,
      "Ġhappened": 829,
      "Ġtell": 830,
      "Ġoff": 831,
      "Ġflow": 832,
      "Ġjust": 833,
      "iny": 834,
      "ĠSo": 835,
      "ĠHer": 836,
      "Ġunt": 837,
      "Ġcalled": 838,
      "Ġlots": 839,
      "Ġad": 840,
      "sed": 841,
      "ft": 842,
      "ĠMia": 843,
      "Ġfam": 844,
      "Ġuntil": 845,
      "Ġfast": 846,
      "ĠWe": 847,
      "Ġsn": 848,
      "gry": 849,
      "aut": 850,
      "vent": 851,
      "ort": 852,
      "ning": 853,
      "lly": 854,
      "Ġhugged": 855,
      "Ġcle": 856,
      "Ġpu": 857,
      "Ġjump": 858,
      "Ġbeaut": 859,
      "Ġkind": 860,
      "Ġby": 861,
      "Ġbra": 862,
      "He": 863,
      "Ġanimals": 864,
      "Ġcol": 865,
      "ady": 866,
      "Ġgr": 867,
      "'m": 868,
      "Ġloud": 869,
      "ĠHis": 870,
      "Ġbest": 871,
      "Ġim": 872,
      "ves": 873,
      "Ġtwo": 874,
      "hn": 875,
      "Ġbetter": 876,
      "Ġfi": 877,
      "urp": 878,
      "pt": 879,
      "wn": 880,
      "Ġred": 881,
      "Ġbeauti": 882,
      "em": 883,
      "Ġra": 884,
      "Ġbeautiful": 885,
      "ber": 886,
      "Yes": 887,
      "Ġche": 888,
      "Ġlove": 889,
      "Ġar": 890,
      "Ġcu": 891,
      "ies": 892,
      "ting": 893,
      "lew": 894,
      "Ġhur": 895,
      "Ġfamily": 896,
      "Ġexplore": 897,
      "self": 898,
      "ase": 899,
      "Ġcareful": 900,
      "Ġeven": 901,
      "Ġjo": 902,
      "Ġfore": 903,
      "ucy": 904,
      "Ġlearned": 905,
      "urn": 906,
      "Ġhard": 907,
      "ool": 908,
      "ct": 909,
      "Ġdon": 910,
      "ane": 911,
      "igh": 912,
      "Åĵ": 913,
      "Ġwo": 914,
      "Ġway": 915,
      "hes": 916,
      "Ġgl": 917,
      "ople": 918,
      "Ġfly": 919,
      "Ġshiny": 920,
      "Ġwalking": 921,
      "Ġbook": 922,
      "Ġlaughed": 923,
      "Ġend": 924,
      "Ġbrave": 925,
      "Ġpretty": 926,
      "Ġwalked": 927,
      "Ġpic": 928,
      "Ġgoing": 929,
      "Ġlist": 930,
      "Ġcome": 931,
      "ĠThen": 932,
      "Ġpeople": 933,
      "Tom": 934,
      "Ġte": 935,
      "It": 936,
      "ock": 937,
      "ĠAnd": 938,
      "Ġunder": 939,
      "Th": 940,
      "Ġsafe": 941,
      "When": 942,
      "Ġdoll": 943,
      "Let": 944,
      "Ġits": 945,
      "ĠÃ¢": 946,
      "Ġdra": 947,
      "Ġrock": 948,
      "Ġground": 949,
      "ĠP": 950,
      "Ġstay": 951,
      "Ġstill": 952,
      "Ġthanked": 953,
      "Ġcolor": 954,
      "Ġhurt": 955,
      "ummy": 956,
      "Ġflew": 957,
      "ect": 958,
      "llo": 959,
      "illy": 960,
      "ĠWhen": 961,
      "led": 962,
      "Ġwind": 963,
      "Ġlet": 964,
      "Ġfar": 965,
      "Ġadvent": 966,
      "be": 967,
      "ĠLucy": 968,
      "Ġboth": 969,
      "Tim": 970,
      "urpr": 971,
      "Ġrem": 972,
      "ary": 973,
      "Ġimp": 974,
      "age": 975,
      "iced": 976,
      "No": 977,
      "Ġkept": 978,
      "Ġsurpr": 979,
      "fore": 980,
      "Ġfr": 981,
      "Ġdoor": 982,
      "ip": 983,
      "Ġnoise": 984,
      "Ġopened": 985,
      "Ġwalk": 986,
      "Ġbad": 987,
      "Ġyear": 988,
      "Ġtre": 989,
      "Ġclean": 990,
      "ture": 991,
      "imb": 992,
      "Ġpa": 993,
      "Ġforest": 994,
      "Ġthr": 995,
      "Ġclimb": 996,
      "ĠFrom": 997,
      "Ġpicked": 998,
      "Ġide": 999,
      "Ġfin": 1000,
      "Ġplace": 1001,
      "Ġhas": 1002,
      "ĠHow": 1003,
      "Ġsto": 1004,
      "What": 1005,
      "ff": 1006,
      "ished": 1007,
      "kay": 1008,
      "Ġwhile": 1009,
      "Ġkit": 1010,
      "Ġsoon": 1011,
      "Ġfeeling": 1012,
      "Ġwar": 1013,
      "ied": 1014,
      "Ġun": 1015,
      "Ġbefore": 1016,
      "Ġnoticed": 1017,
      "Ġshould": 1018,
      "Ġpicture": 1019,
      "Ġidea": 1020,
      "ĠSuddenly": 1021,
      "Ġbed": 1022,
      "Ġma": 1023,
      "Ġkeep": 1024,
      "âĤ¬â": 1025,
      "eet": 1026,
      "Ġlooking": 1027,
      "Ġangry": 1028,
      "Ġblue": 1029,
      "Ġcry": 1030,
      "ised": 1031,
      "Ġtruck": 1032,
      "Ġwr": 1033,
      "kes": 1034,
      "Ġadventure": 1035,
      "oon": 1036,
      "thing": 1037,
      "ge": 1038,
      "Ġey": 1039,
      "th": 1040,
      "Ġthree": 1041,
      "Ġcon": 1042,
      "so": 1043,
      "Ġnear": 1044,
      "ted": 1045,
      "Ġdif": 1046,
      "Ġfood": 1047,
      "Ġalso": 1048,
      "ĠJohn": 1049,
      "ĠBob": 1050,
      "Ġreal": 1051,
      "ĠG": 1052,
      "Ġturn": 1053,
      "dded": 1054,
      "Ġtra": 1055,
      "Ġslide": 1056,
      "Ġwatch": 1057,
      "ĠSp": 1058,
      "Ġflowers": 1059,
      "day": 1060,
      "les": 1061,
      "Ġgre": 1062,
      "Ġnow": 1063,
      "Suddenly": 1064,
      "Ħ¢": 1065,
      "âĤ¬âĦ¢": 1066,
      "ĠDad": 1067,
      "Ġac": 1068,
      "Ġtow": 1069,
      "Ġbright": 1070,
      "bbit": 1071,
      "uch": 1072,
      "ious": 1073,
      "Ġfish": 1074,
      "Ġdress": 1075,
      "Ġstrong": 1076,
      "ĠHi": 1077,
      "Ġrepl": 1078,
      "irst": 1079,
      "oy": 1080,
      "Ġboat": 1081,
      "That": 1082,
      "Ġstopped": 1083,
      "ĠHello": 1084,
      "Ġrabbit": 1085,
      "Ġsmile": 1086,
      "able": 1087,
      "ught": 1088,
      "Ġcuri": 1089,
      "Ġapp": 1090,
      "ream": 1091,
      "Ġhigh": 1092,
      "Ġstore": 1093,
      "Ġface": 1094,
      "ange": 1095,
      "Ġfav": 1096,
      "Ġrain": 1097,
      "Ġeyes": 1098,
      "Ġown": 1099,
      "fere": 1100,
      "Ġyell": 1101,
      "Ġquick": 1102,
      "Ġdiffere": 1103,
      "Ġhands": 1104,
      "Ġcurious": 1105,
      "gan": 1106,
      "Ġgive": 1107,
      "Ġbro": 1108,
      "Ġwait": 1109,
      "Ġdel": 1110,
      "Ġshowed": 1111,
      "aybe": 1112,
      "ance": 1113,
      "Ġreplied": 1114,
      "Ġdis": 1115,
      "maz": 1116,
      "ĠR": 1117,
      "Ġnodded": 1118,
      "Ġamaz": 1119,
      "Ġwhere": 1120,
      "She": 1121,
      "Ġafter": 1122,
      "Ġtal": 1123,
      "Ġlisten": 1124,
      "Ġdifferent": 1125,
      "Ġstick": 1126,
      "Ġmor": 1127,
      "joy": 1128,
      "ĠSpot": 1129,
      "Ġeveryone": 1130,
      "Ġvo": 1131,
      "Ġsound": 1132,
      "Look": 1133,
      "Ġwork": 1134,
      "Ġbeing": 1135,
      "bbed": 1136,
      "ount": 1137,
      "ĠSue": 1138,
      "llow": 1139,
      "ember": 1140,
      "ized": 1141,
      "Ġask": 1142,
      "Ġnight": 1143,
      "Ġgreat": 1144,
      "Ġcloser": 1145,
      "Ġthink": 1146,
      "ins": 1147,
      "co": 1148,
      "Ġquickly": 1149,
      "Ġuse": 1150,
      "Ġwonder": 1151,
      "Ġchild": 1152,
      "Ġhead": 1153,
      "Ġenjoy": 1154,
      "Ġbit": 1155,
      "Ġshout": 1156,
      "Ġpain": 1157,
      "Ġyears": 1158,
      "chen": 1159,
      "Ġde": 1160,
      "ndma": 1161,
      "Ġkitchen": 1162,
      "Ġfollow": 1163,
      "Ġremember": 1164,
      "Ben": 1165,
      "anc": 1166,
      "unny": 1167,
      "Ġwarm": 1168,
      "ĠMommy": 1169,
      "Ġwatched": 1170,
      "lease": 1171,
      "Thank": 1172,
      "Ġz": 1173,
      "Ġmag": 1174,
      "imes": 1175,
      "Ġgrass": 1176,
      "aught": 1177,
      "ĠN": 1178,
      "So": 1179,
      "leep": 1180,
      "sh": 1181,
      "Ġbirds": 1182,
      "Can": 1183,
      "ered": 1184,
      "Ġcake": 1185,
      "Ġright": 1186,
      "Ġever": 1187,
      "Ġcook": 1188,
      "Ġbus": 1189,
      "ĠJane": 1190,
      "Ġvoice": 1191,
      "Ġbutter": 1192,
      "Ġonly": 1193,
      "ull": 1194,
      "ila": 1195,
      "Ġdraw": 1196,
      "Ġpie": 1197,
      "Ġlea": 1198,
      "Ġba": 1199,
      "Ġimport": 1200,
      "Ġopen": 1201,
      "Ġfirst": 1202,
      "Ġfavor": 1203,
      "Ġblock": 1204,
      "Ġthrough": 1205,
      "ired": 1206,
      "Ġsand": 1207,
      "Ġfavorite": 1208,
      "ten": 1209,
      "Ġbrother": 1210,
      "Ġus": 1211,
      "Ġsing": 1212,
      "Ġmean": 1213,
      "Her": 1214,
      "Ġimportant": 1215,
      "Ġsure": 1216,
      "Ġworld": 1217,
      "Ġbeen": 1218,
      "Ġbecame": 1219,
      "Ġokay": 1220,
      "orn": 1221,
      "ĠSarah": 1222,
      "Ġbel": 1223,
      "ached": 1224,
      "Ġflo": 1225,
      "isy": 1226,
      "Ġpretend": 1227,
      "ĠAs": 1228,
      "ppy": 1229,
      "uff": 1230,
      "We": 1231,
      "ac": 1232,
      "Ġcr": 1233,
      "Ġhop": 1234,
      "where": 1235,
      "Ġgrabbed": 1236,
      "Ġname": 1237,
      "Ġam": 1238,
      "ath": 1239,
      "Ġfell": 1240,
      "Ġcars": 1241,
      "Ġprin": 1242,
      "Ġbre": 1243,
      "Ġcra": 1244,
      "Ġsit": 1245,
      "Ġsoft": 1246,
      "Ġdr": 1247,
      "Ġmon": 1248,
      "Ġkid": 1249,
      "Ġtri": 1250,
      "olly": 1251,
      "zy": 1252,
      "Ġyummy": 1253,
      "Ġpap": 1254,
      "Ġper": 1255,
      "Ġhat": 1256,
      "ĠTh": 1257,
      "Ġsweet": 1258,
      "Ġhaving": 1259,
      "Ġdoes": 1260,
      "nts": 1261,
      "Ġjumped": 1262,
      "Ġfire": 1263,
      "Ġreally": 1264,
      "bye": 1265,
      "Ġour": 1266,
      "iss": 1267,
      "Ġpull": 1268,
      "Ġforg": 1269,
      "ĠEveryone": 1270,
      "Ġgame": 1271,
      "Ġbunny": 1272,
      "Ġmum": 1273,
      "As": 1274,
      "Ġbeh": 1275,
      "After": 1276,
      "ater": 1277,
      "Ġsqu": 1278,
      "Ġgreen": 1279,
      "Ġduck": 1280,
      "Ġcut": 1281,
      "Ġready": 1282,
      "Ġhelped": 1283,
      "Ġanym": 1284,
      "Ġbegan": 1285,
      "Ġanymore": 1286,
      "Ġtrees": 1287,
      "ĠJoe": 1288,
      "Ġru": 1289,
      "Ġpare": 1290,
      "Ġreached": 1291,
      "Ġpiece": 1292,
      "ster": 1293,
      "Ġwood": 1294,
      "Ġwear": 1295,
      "Ġcatch": 1296,
      "Ġsees": 1297,
      "Ġpond": 1298,
      "Ġused": 1299,
      "Ġswim": 1300,
      "Ġfunny": 1301,
      "Ġhere": 1302,
      "ather": 1303,
      "Ġcoming": 1304,
      "Ġhair": 1305,
      "Ġgoodbye": 1306,
      "Ġhear": 1307,
      "Ġyellow": 1308,
      "Ġtall": 1309,
      "Ġtired": 1310,
      "Ġcont": 1311,
      "ign": 1312,
      "Ġmess": 1313,
      "bo": 1314,
      "Ġfarm": 1315,
      "Ġfill": 1316,
      "eddy": 1317,
      "ient": 1318,
      "Ġhimself": 1319,
      "Ġbutterf": 1320,
      "Ġste": 1321,
      "Ġlady": 1322,
      "Mommy": 1323,
      "air": 1324,
      "Ġstop": 1325,
      "Ġflower": 1326,
      "Ġbag": 1327,
      "Ġtast": 1328,
      "iver": 1329,
      "Timmy": 1330,
      "Ġtop": 1331,
      "Ġthing": 1332,
      "Ġseen": 1333,
      "Ġmaking": 1334,
      "Ġfro": 1335,
      "Ġmagic": 1336,
      "fully": 1337,
      "Ġhopped": 1338,
      "Ġblocks": 1339,
      "aisy": 1340,
      "Ġdri": 1341,
      "Ġate": 1342,
      "Ġpaper": 1343,
      "Ġpart": 1344,
      "Ġrealized": 1345,
      "Ġshouted": 1346,
      "Ġdin": 1347,
      "Ġlikes": 1348,
      "Ġrunning": 1349,
      "Ġspot": 1350,
      "Ġparents": 1351,
      "Ġpus": 1352,
      "Ġkids": 1353,
      "Ġfix": 1354,
      "rel": 1355,
      "Ġfull": 1356,
      "ĠBenny": 1357,
      "andy": 1358,
      "Wow": 1359,
      "Ġsleep": 1360,
      "Ġdark": 1361,
      "Ġsho": 1362,
      "Ġwhy": 1363,
      "Ġswing": 1364,
      "Ġcool": 1365,
      "ike": 1366,
      "Ġhill": 1367,
      "akes": 1368,
      "Ġbuy": 1369,
      "Ġneeded": 1370,
      "Ġtouch": 1371,
      "ren": 1372,
      "Ġset": 1373,
      "Ġglad": 1374,
      "Ġlight": 1375,
      "uit": 1376,
      "ards": 1377,
      "ĠLet": 1378,
      "ĠLila": 1379,
      "ĠDo": 1380,
      "ĠSally": 1381,
      "Ġmouse": 1382,
      "astle": 1383,
      "Ġrest": 1384,
      "Ġcreat": 1385,
      "Ġworry": 1386,
      "hy": 1387,
      "oney": 1388,
      "Ġcold": 1389,
      "ken": 1390,
      "Ġdro": 1391,
      "Ġread": 1392,
      "ĠThere": 1393,
      "Ġfloor": 1394,
      "Jo": 1395,
      "Ġhole": 1396,
      "Ġsmell": 1397,
      "Ġbow": 1398,
      "Ġbehind": 1399,
      "ĠIn": 1400,
      "Ġarri": 1401,
      "Ġcolors": 1402,
      "Ġwindow": 1403,
      "Ġclose": 1404,
      "Ġsurprise": 1405,
      "Ġdelic": 1406,
      "ons": 1407,
      "Ġunderst": 1408,
      "Ġlooks": 1409,
      "Ġlost": 1410,
      "Don": 1411,
      "Ġgi": 1412,
      "Ġsat": 1413,
      "Ġbug": 1414,
      "Ġbuild": 1415,
      "Ġ-": 1416,
      "Ġbooks": 1417,
      "Ġstar": 1418,
      "Ġworked": 1419,
      "'re": 1420,
      "Ġhun": 1421,
      "Ġair": 1422,
      "Ġslow": 1423,
      "Ġsnow": 1424,
      "Ġhold": 1425,
      "Ġmorning": 1426,
      "Ġbutterfly": 1427,
      "Ġarrived": 1428,
      "Ġfrog": 1429,
      "Ġanother": 1430,
      "Ġdone": 1431,
      "ield": 1432,
      "Ġmove": 1433,
      "Ġdream": 1434,
      "Ġprince": 1435,
      "Ġcried": 1436,
      "Ġdoing": 1437,
      "Ġice": 1438,
      "Ġwaved": 1439,
      "Ġless": 1440,
      "Ġperf": 1441,
      "Ġcarefully": 1442,
      "Ġdir": 1443,
      "ross": 1444,
      "Ġlaugh": 1445,
      "Ġcla": 1446,
      "ul": 1447,
      "Hell": 1448,
      "Ġhot": 1449,
      "Hello": 1450,
      "ĠThat": 1451,
      "Ġpink": 1452,
      "Ġfriendly": 1453,
      "Ġheld": 1454,
      "ation": 1455,
      "ĠEm": 1456,
      "Ġtable": 1457,
      "Ġcastle": 1458,
      "Ġhid": 1459,
      "Ġprom": 1460,
      "ĠK": 1461,
      "Ġwhite": 1462,
      "Ġleaves": 1463,
      "Ġbaby": 1464,
      "\".": 1465,
      "av": 1466,
      "Ġvis": 1467,
      "Ġwrong": 1468,
      "Ġremembered": 1469,
      "Ġfollowed": 1470,
      "ret": 1471,
      "Ġcount": 1472,
      "ĠDaisy": 1473,
      "Ġsong": 1474,
      "ner": 1475,
      "Ġmet": 1476,
      "Ġmight": 1477,
      "Ġchildren": 1478,
      "Ġpictures": 1479,
      "Ġsurprised": 1480,
      "room": 1481,
      "anger": 1482,
      "ĠTommy": 1483,
      "Ġanything": 1484,
      "uffy": 1485,
      "ich": 1486,
      "ued": 1487,
      "ined": 1488,
      "asure": 1489,
      "Ġleft": 1490,
      "Ġgrandma": 1491,
      "Ġdaddy": 1492,
      "ĠBilly": 1493,
      "Ġfur": 1494,
      "Ġfair": 1495,
      "Ġfilled": 1496,
      "set": 1497,
      "Ġres": 1498,
      "Ġarm": 1499,
      "ey": 1500,
      "Ġherself": 1501,
      "Ġbeach": 1502,
      "Ġwished": 1503,
      "Then": 1504,
      "ĠAfter": 1505,
      "Ġmar": 1506,
      "Ġwoods": 1507,
      "Ġhappily": 1508,
      "Ġenjoyed": 1509,
      "Ġthank": 1510,
      "inally": 1511,
      "ssed": 1512,
      "Anna": 1513,
      "Ġsail": 1514,
      "Ġwall": 1515,
      "Ġplease": 1516,
      "Ġhungry": 1517,
      "Ġyes": 1518,
      "Sara": 1519,
      "Ġfinished": 1520,
      "Ġlion": 1521,
      "Ġpoin": 1522,
      "ama": 1523,
      "icy": 1524,
      "Ġwants": 1525,
      "Ġsquir": 1526,
      "eter": 1527,
      "Ġdelicious": 1528,
      "Ġgetting": 1529,
      "Ġstrange": 1530,
      "Ġdinner": 1531,
      "ds": 1532,
      "Ġsomeone": 1533,
      "Ġlesson": 1534,
      "reed": 1535,
      "Ġclot": 1536,
      "Ġmus": 1537,
      "oup": 1538,
      "ger": 1539,
      "Ġtwins": 1540,
      "Ġtight": 1541,
      "ash": 1542,
      "Ġride": 1543,
      "Ġsquirrel": 1544,
      "Ġclothes": 1545,
      "Ġbreak": 1546,
      "red": 1547,
      "Ġroll": 1548,
      "Ġrel": 1549,
      "Ġforgot": 1550,
      "ĠJim": 1551,
      "pe": 1552,
      "oom": 1553,
      "ĠJen": 1554,
      "Ġcomp": 1555,
      "Ġpat": 1556,
      "Ġbroken": 1557,
      "Ġsear": 1558,
      "Ġmother": 1559,
      "gon": 1560,
      "Ġunderstand": 1561,
      "Ġmat": 1562,
      "Ġvisit": 1563,
      "Ġscary": 1564,
      "Ġel": 1565,
      "row": 1566,
      "Ġtalk": 1567,
      "At": 1568,
      "Ġbrought": 1569,
      "ence": 1570,
      "Ġcontin": 1571,
      "Ġclimbed": 1572,
      "Ġtrying": 1573,
      "Ġspark": 1574,
      "Ġpuppy": 1575,
      "Ġamazing": 1576,
      "Ġwonderful": 1577,
      "John": 1578,
      "oring": 1579,
      "man": 1580,
      "Ġju": 1581,
      "Ġspl": 1582,
      "Ġhide": 1583,
      "ries": 1584,
      "Ġelse": 1585,
      "rot": 1586,
      "Ġgen": 1587,
      "Ġcookies": 1588,
      "ctor": 1589,
      "key": 1590,
      "Ġsometimes": 1591,
      "Ġwet": 1592,
      "Ġeverything": 1593,
      "Ġfight": 1594,
      "Ġpet": 1595,
      "Ġlake": 1596,
      "wl": 1597,
      "ower": 1598,
      "Ġfield": 1599,
      "Ġcream": 1600,
      "ĠGra": 1601,
      "der": 1602,
      "Ġdance": 1603,
      "Ġdolls": 1604,
      "zz": 1605,
      "Ġfall": 1606,
      "Ġenough": 1607,
      "Ġperfect": 1608,
      "Ġgone": 1609,
      "ĠMolly": 1610,
      "Ġmusic": 1611,
      "ix": 1612,
      "pping": 1613,
      "Ġtail": 1614,
      "Ġable": 1615,
      "Ġwasn": 1616,
      "OK": 1617,
      "Ġdanc": 1618,
      "Ġpol": 1619,
      "Sam": 1620,
      "His": 1621,
      "amp": 1622,
      "ĠAll": 1623,
      "os": 1624,
      "Ġcontinued": 1625,
      "Ġagreed": 1626,
      "ucky": 1627,
      "ast": 1628,
      "ĠFl": 1629,
      "Ġdeep": 1630,
      "Ġliving": 1631,
      "Ġballoon": 1632,
      "Ġflying": 1633,
      "ĠThis": 1634,
      "ĠAmy": 1635,
      "'ll": 1636,
      "Ġpaint": 1637,
      "ĠJill": 1638,
      "Ġcloud": 1639,
      "que": 1640,
      "Ġsilly": 1641,
      "Ġve": 1642,
      "orm": 1643,
      "Ġmoment": 1644,
      "ister": 1645,
      "ask": 1646,
      "ames": 1647,
      "Ġpen": 1648,
      "gg": 1649,
      "Ġem": 1650,
      "Ġalone": 1651,
      "Jack": 1652,
      "Ġteddy": 1653,
      "Ġstayed": 1654,
      "ises": 1655,
      "Ġfinally": 1656,
      "Ġturned": 1657,
      "Ġrace": 1658,
      "Ġmakes": 1659,
      "Ġwaited": 1660,
      "ng": 1661,
      "ated": 1662,
      "ph": 1663,
      "ugg": 1664,
      "Ġside": 1665,
      "Ġplan": 1666,
      "ĠNow": 1667,
      "ĠMaybe": 1668,
      "Ġfew": 1669,
      "avy": 1670,
      "Ġgrow": 1671,
      "Ġeverywhere": 1672,
      "Ġfox": 1673,
      "Ġcolorful": 1674,
      "Ġele": 1675,
      "This": 1676,
      "ever": 1677,
      "Ġtowards": 1678,
      "up": 1679,
      "Ġothers": 1680,
      "From": 1681,
      "Ġblack": 1682,
      "me": 1683,
      "Ġlistened": 1684,
      "rew": 1685,
      "Ġprincess": 1686,
      "Ġamazed": 1687,
      "Ġriver": 1688,
      "Ġshap": 1689,
      "Ġparty": 1690,
      "Ġbike": 1691,
      "Ġasks": 1692,
      "Ġplant": 1693,
      "med": 1694,
      "cle": 1695,
      "Ġbot": 1696,
      "Oh": 1697,
      "Ġpieces": 1698,
      "Ġdanger": 1699,
      "Ġjoy": 1700,
      "thy": 1701,
      "Ġbar": 1702,
      "Ġland": 1703,
      "Ġsister": 1704,
      "Ġowner": 1705,
      "ĠTo": 1706,
      "Ġcandy": 1707,
      "cket": 1708,
      "Ġmix": 1709,
      "lc": 1710,
      "Ġsec": 1711,
      "Ġacc": 1712,
      "Ġblank": 1713,
      "Ġcup": 1714,
      "ident": 1715,
      "Ġtreat": 1716,
      "Ġsmiles": 1717,
      "Ġacross": 1718,
      "Ġtown": 1719,
      "chool": 1720,
      "Ġjoin": 1721,
      "Ġtreasure": 1722,
      "Ġreach": 1723,
      "ming": 1724,
      "Ġbigger": 1725,
      "Ġblanket": 1726,
      "Ġsnack": 1727,
      "Ġgu": 1728,
      "Ġsign": 1729,
      "Max": 1730,
      "Ġheavy": 1731,
      "unch": 1732,
      "igg": 1733,
      "Ġworried": 1734,
      "Ġschool": 1735,
      "Ġpulled": 1736,
      "Ġbrown": 1737,
      "Ġleave": 1738,
      "Ġmoney": 1739,
      "Ġpro": 1740,
      "ling": 1741,
      "Ġstepped": 1742,
      "Ġbowl": 1743,
      "la": 1744,
      "ere": 1745,
      "Ġje": 1746,
      "Ġyard": 1747,
      "Ġpack": 1748,
      "Ġnap": 1749,
      "Ġtrain": 1750,
      "ained": 1751,
      "iet": 1752,
      "Ġgif": 1753,
      "Ġatt": 1754,
      "Ġslowly": 1755,
      "sw": 1756,
      "Ġpot": 1757,
      "Ġcray": 1758,
      "ipped": 1759,
      "Maybe": 1760,
      "Ġansw": 1761,
      "fort": 1762,
      "Ġfaster": 1763,
      "ire": 1764,
      "Ġyoung": 1765,
      "Ġfarmer": 1766,
      "yard": 1767,
      "ze": 1768,
      "outh": 1769,
      "Ġaccident": 1770,
      "Sure": 1771,
      "Ġruns": 1772,
      "Ġbroke": 1773,
      "Ġmagical": 1774,
      "Ġca": 1775,
      "Ġbackyard": 1776,
      "Ġshar": 1777,
      "Ġmouth": 1778,
      "Ġquiet": 1779,
      "Ġdes": 1780,
      "Ġbelie": 1781,
      "umb": 1782,
      "Ġear": 1783,
      "Ġcoll": 1784,
      "Hi": 1785,
      "Ġ3": 1786,
      "Ġmonkey": 1787,
      "Ġfruit": 1788,
      "Ġdoctor": 1789,
      "Ġcho": 1790,
      "Ġjob": 1791,
      "Ġstuck": 1792,
      "Ġbuck": 1793,
      "Ġwin": 1794,
      "Ġmost": 1795,
      "ord": 1796,
      "itten": 1797,
      "Ġsmart": 1798,
      "Ġwon": 1799,
      "iting": 1800,
      "ĠMr": 1801,
      "Okay": 1802,
      "weet": 1803,
      "Ġdragon": 1804,
      "bble": 1805,
      "Ġnoises": 1806,
      "Ġdirty": 1807,
      "Ġcarrot": 1808,
      "Ġcrying": 1809,
      "Ġpast": 1810,
      "Ġtoday": 1811,
      "Ġpromised": 1812,
      "Ġthinks": 1813,
      "Ġeating": 1814,
      "ored": 1815,
      "asket": 1816,
      "Why": 1817,
      "Ġbath": 1818,
      "Ġshared": 1819,
      "Ġspr": 1820,
      "Ġwhis": 1821,
      "ased": 1822,
      "Ġbasket": 1823,
      "Ġswings": 1824,
      "Ġmonster": 1825,
      "Ġhig": 1826,
      "Ġtower": 1827,
      "phant": 1828,
      "Ġsame": 1829,
      "Ġwouldn": 1830,
      "ors": 1831,
      "ĠFluffy": 1832,
      "Ġes": 1833,
      "ĠDaddy": 1834,
      "Ġhappen": 1835,
      "ually": 1836,
      "Ġdangerous": 1837,
      "Ġelephant": 1838,
      "Ġteac": 1839,
      "vel": 1840,
      "Ġlone": 1841,
      "Ġlonely": 1842,
      "Ġpers": 1843,
      "ĠEmma": 1844,
      "eared": 1845,
      "Ġmust": 1846,
      "Ġgames": 1847,
      "Ġbutt": 1848,
      "Ġsea": 1849,
      "Ġwords": 1850,
      "Ġgrate": 1851,
      "Ġsuddenly": 1852,
      "app": 1853,
      "Ġsuch": 1854,
      "Ġsunny": 1855,
      "ĠMary": 1856,
      "Ġadventures": 1857,
      "Ġalong": 1858,
      "Ġbee": 1859,
      "althy": 1860,
      "br": 1861,
      "Ġstand": 1862,
      "Ġshop": 1863,
      "Ġgrateful": 1864,
      "Ġfence": 1865,
      "Ġsmo": 1866,
      "ney": 1867,
      "ountain": 1868,
      "Ġdrove": 1869,
      "Ġchair": 1870,
      "Ġclosed": 1871,
      "Ġhit": 1872,
      "ract": 1873,
      "Ġrocks": 1874,
      "Ġthrew": 1875,
      "Ġhelping": 1876,
      "Ġorange": 1877,
      "Ġscream": 1878,
      "Ġbite": 1879,
      "ts": 1880,
      "Ġshoes": 1881,
      "ush": 1882,
      "Ġpushed": 1883,
      "Ġwelc": 1884,
      "Ġjour": 1885,
      "Ġteacher": 1886,
      "Ġwings": 1887,
      "oun": 1888,
      "ment": 1889,
      "Ġcorn": 1890,
      "Ġhigher": 1891,
      "ung": 1892,
      "Ġmoral": 1893,
      "Ġwise": 1894,
      "Ġneigh": 1895,
      "pper": 1896,
      "Ġwhe": 1897,
      "cked": 1898,
      "Ġneighb": 1899,
      "Ġdisapp": 1900,
      "Ġpocket": 1901,
      "Ġben": 1902,
      "Ġbelieve": 1903,
      "Ġjar": 1904,
      "Ġheart": 1905,
      "Ġwoke": 1906,
      "Ġneck": 1907,
      "sy": 1908,
      "bby": 1909,
      "de": 1910,
      "Ġleg": 1911,
      "Ġbucket": 1912,
      "ĠMama": 1913,
      "Ġtiny": 1914,
      "Ġfairy": 1915,
      "ee": 1916,
      "Ġapple": 1917,
      "Ġbusy": 1918,
      "Ġowl": 1919,
      "Ġexploring": 1920,
      "ining": 1921,
      "Ġupset": 1922,
      "omet": 1923,
      "Ġbring": 1924,
      "Ġgentle": 1925,
      "Ġstre": 1926,
      "Ġnearby": 1927,
      "Ġthrow": 1928,
      "Ġsecret": 1929,
      "ĠTweet": 1930,
      "Ġsoup": 1931,
      "Ġseemed": 1932,
      "Ġcarry": 1933,
      "ho": 1934,
      "ek": 1935,
      "orrow": 1936,
      "Ġdry": 1937,
      "Ġaccidentally": 1938,
      "Ġclapped": 1939,
      "Ġshapes": 1940,
      "Ġstreet": 1941,
      "Ġsang": 1942,
      "Ġtrou": 1943,
      "Ġsinging": 1944,
      "Ġnaught": 1945,
      "Ġturns": 1946,
      "ittens": 1947,
      "Ġpig": 1948,
      "Ġwithout": 1949,
      "Ġlunch": 1950,
      "less": 1951,
      "ĠJimmy": 1952,
      "Ġnaughty": 1953,
      "ier": 1954,
      "ible": 1955,
      "Ġround": 1956,
      "Ġdrink": 1957,
      "Ġcour": 1958,
      "Ġstories": 1959,
      "Ġcou": 1960,
      "Ġexplained": 1961,
      "ions": 1962,
      "Ġhuge": 1963,
      "Ġcow": 1964,
      "Ġmail": 1965,
      "fused": 1966,
      "Ġsitting": 1967,
      "Ġmark": 1968,
      "Ġswam": 1969,
      "Ġfeels": 1970,
      "Ġmin": 1971,
      "Ġcute": 1972,
      "Ġstars": 1973,
      "Ġdropped": 1974,
      "Ġmoved": 1975,
      "ĠInside": 1976,
      "Ġfree": 1977,
      "Ġnest": 1978,
      "Ġkite": 1979,
      "Ġcheered": 1980,
      "Ġcourse": 1981,
      "Finally": 1982,
      "Ġbat": 1983,
      "Ġph": 1984,
      "Ġstu": 1985,
      "Ġexp": 1986,
      "Ġwell": 1987,
      "Do": 1988,
      "Ġbottle": 1989,
      "shine": 1990,
      "read": 1991,
      "aughter": 1992,
      "ub": 1993,
      "Ġtaking": 1994,
      "Ġob": 1995,
      "ead": 1996,
      "Ġbelong": 1997,
      "vered": 1998,
      "Ġsunshine": 1999,
      "ventually": 2000,
      "Ġinst": 2001,
      "ball": 2002,
      "Ġpurp": 2003,
      "Ġhoped": 2004,
      "Ġexciting": 2005,
      "ocked": 2006,
      "Ġbran": 2007,
      "Ġbranch": 2008,
      "Ġcolour": 2009,
      "Ġinv": 2010,
      "Ġbench": 2011,
      "Ġboun": 2012,
      "Ġking": 2013,
      "Ġdaughter": 2014,
      "Ġcir": 2015,
      "Ġforget": 2016,
      "Ġroad": 2017,
      "col": 2018,
      "Ġkey": 2019,
      "adow": 2020,
      "ometimes": 2021,
      "Ġsick": 2022,
      "sting": 2023,
      "Ġswimming": 2024,
      "Ġcoat": 2025,
      "Ġshook": 2026,
      "Ġwondered": 2027,
      "Ġpurple": 2028,
      "Ġegg": 2029,
      "thday": 2030,
      "Ġintere": 2031,
      "ĠGrandma": 2032,
      "Ġwish": 2033,
      "issed": 2034,
      "Ġmine": 2035,
      "Mia": 2036,
      "idge": 2037,
      "Ġnose": 2038,
      "ass": 2039,
      "Ġarms": 2040,
      "Ġaf": 2041,
      "Ġdriver": 2042,
      "Ġcrayons": 2043,
      "Ġshining": 2044,
      "bow": 2045,
      "ĠSammy": 2046,
      "ese": 2047,
      "Ġlonger": 2048,
      "ity": 2049,
      "let": 2050,
      "Ġtom": 2051,
      "Ġfit": 2052,
      "board": 2053,
      "to": 2054,
      "Later": 2055,
      "Ġcaught": 2056,
      "Ġmiss": 2057,
      "Ġhar": 2058,
      "Ġdisco": 2059,
      "ol": 2060,
      "Ġpower": 2061,
      "cks": 2062,
      "itch": 2063,
      "Ġjuice": 2064,
      "Ġbirthday": 2065,
      "Ġlate": 2066,
      "Ġjourney": 2067,
      "raid": 2068,
      "ĠO": 2069,
      "Ġkick": 2070,
      "Ġcozy": 2071,
      "Ġmil": 2072,
      "Ġthough": 2073,
      "ail": 2074,
      "Ġafraid": 2075,
      "Ġvill": 2076,
      "Ġspotted": 2077,
      "ens": 2078,
      "Ġducks": 2079,
      "Ġnothing": 2080,
      "Ġwelcome": 2081,
      "Ġhello": 2082,
      "Ġsounds": 2083,
      "Ġletter": 2084,
      "Ġhugs": 2085,
      "era": 2086,
      "ĠMittens": 2087,
      "Ġbought": 2088,
      "Ġimag": 2089,
      "Ġrainbow": 2090,
      "Ġspoon": 2091,
      "unt": 2092,
      "Ġwide": 2093,
      "Ġlift": 2094,
      "Ġsearched": 2095,
      "Ġwatching": 2096,
      "Ġanyone": 2097,
      "Ġwra": 2098,
      "Ġinc": 2099,
      "Ġpatient": 2100,
      "Ġcave": 2101,
      "Ġent": 2102,
      "Ġpudd": 2103,
      "Ġoce": 2104,
      "Ġpointed": 2105,
      "Ġshell": 2106,
      "Ġocean": 2107,
      "mer": 2108,
      "Ġdays": 2109,
      "Ġwrite": 2110,
      "els": 2111,
      "irt": 2112,
      "Ġzoom": 2113,
      "Ġholding": 2114,
      "Ġinteresting": 2115,
      "Ġcheese": 2116,
      "Ġonto": 2117,
      "Ġquest": 2118,
      "Ġbread": 2119,
      "Ġband": 2120,
      "Ġpres": 2121,
      "eth": 2122,
      "ian": 2123,
      "ĠSometimes": 2124,
      "Ġpeace": 2125,
      "aur": 2126,
      "Ġwhich": 2127,
      "ose": 2128,
      "Ġcomes": 2129,
      "Ġtrip": 2130,
      "Ġplane": 2131,
      "Ġtasty": 2132,
      "ndp": 2133,
      "ĠEll": 2134,
      "epend": 2135,
      "Ġstorm": 2136,
      "Ġmilk": 2137,
      "Ġtou": 2138,
      "Ġmad": 2139,
      "Ġcomfort": 2140,
      "Ġspo": 2141,
      "Ġtouched": 2142,
      "Ġperson": 2143,
      "Ġgift": 2144,
      "ward": 2145,
      "Ġpar": 2146,
      "Ġmeet": 2147,
      "ĠFinally": 2148,
      "hile": 2149,
      "Ġtur": 2150,
      "Ġpath": 2151,
      "Ġapples": 2152,
      "Ġfurry": 2153,
      "gged": 2154,
      "Ġlovely": 2155,
      "Ġgigg": 2156,
      "Ġtakes": 2157,
      "alm": 2158,
      "blem": 2159,
      "Ġspin": 2160,
      "ize": 2161,
      "Ġproblem": 2162,
      "Ġfing": 2163,
      "ĠSoon": 2164,
      "Ġzoo": 2165,
      "Ġgather": 2166,
      "Ġlaughing": 2167,
      "ove": 2168,
      "nn": 2169,
      "cer": 2170,
      "ont": 2171,
      "Ġeag": 2172,
      "izz": 2173,
      "Ġsharp": 2174,
      "Ġwild": 2175,
      "Ġhoney": 2176,
      "Ġplaces": 2177,
      "Ġsearch": 2178,
      "ond": 2179,
      "Ġbush": 2180,
      "fish": 2181,
      "ped": 2182,
      "Ġsandw": 2183,
      "Ġrolled": 2184,
      "Ġclouds": 2185,
      "Ġpresent": 2186,
      "ĠMum": 2187,
      "ĠAl": 2188,
      "Ġgiant": 2189,
      "Ġpuzz": 2190,
      "Ġfront": 2191,
      "Ġact": 2192,
      "Ġdrive": 2193,
      "Ġpill": 2194,
      "Ġrope": 2195,
      "Ġgrab": 2196,
      "Ġsmelled": 2197,
      "ĠCh": 2198,
      "Ġwearing": 2199,
      "Ġspid": 2200,
      "Ġlife": 2201,
      "Ġforever": 2202,
      "Ġinstead": 2203,
      "erly": 2204,
      "Ġce": 2205,
      "Ġdirt": 2206,
      "Ġcard": 2207,
      "Ġmyster": 2208,
      "Ġorgan": 2209,
      "Ġrelie": 2210,
      "Ġtun": 2211,
      "Ġcreature": 2212,
      "isa": 2213,
      "Ġresp": 2214,
      "Ġdanced": 2215,
      "ular": 2216,
      "ĠThank": 2217,
      "Ġmountain": 2218,
      "Ġsnowman": 2219,
      "ced": 2220,
      "Ġpile": 2221,
      "ndpa": 2222,
      "eb": 2223,
      "Ġclever": 2224,
      "Ġdist": 2225,
      "Ġsack": 2226,
      "Ġpract": 2227,
      "Of": 2228,
      "Ġlay": 2229,
      "Ġmist": 2230,
      "Every": 2231,
      "Ġeas": 2232,
      "Ġfeather": 2233,
      "Ġhor": 2234,
      "Ġadm": 2235,
      "Ġvillage": 2236,
      "Ġdi": 2237,
      "Ġbutton": 2238,
      "Ġthin": 2239,
      "Ġlucky": 2240,
      "Ġbark": 2241,
      "Ġappeared": 2242,
      "nic": 2243,
      "Ġcollect": 2244,
      "Ġshr": 2245,
      "Ġcheer": 2246,
      "Ġpicnic": 2247,
      "Ġsongs": 2248,
      "umber": 2249,
      "Ġlater": 2250,
      "ungle": 2251,
      "Ġpretended": 2252,
      "And": 2253,
      "Ġjungle": 2254,
      "sp": 2255,
      "Ġcart": 2256,
      "Hey": 2257,
      "Ġant": 2258,
      "arge": 2259,
      "owed": 2260,
      "Ġgives": 2261,
      "Ġpop": 2262,
      "Ġtrouble": 2263,
      "Ġtalked": 2264,
      "Ġfoot": 2265,
      "Ġbuilding": 2266,
      "lex": 2267,
      "Ġsmiling": 2268,
      "ĠCome": 2269,
      "ness": 2270,
      "og": 2271,
      "Ġseat": 2272,
      "Ġsur": 2273,
      "Ġwore": 2274,
      "Ġhealthy": 2275,
      "Ġworm": 2276,
      "oose": 2277,
      "Ġshy": 2278,
      "Ġcouch": 2279,
      "old": 2280,
      "Ġlive": 2281,
      "ecially": 2282,
      "ale": 2283,
      "Ġhum": 2284,
      "itty": 2285,
      "Ġslid": 2286,
      "Ġesp": 2287,
      "Bob": 2288,
      "Ġmud": 2289,
      "bar": 2290,
      "Ġret": 2291,
      "Ġimpre": 2292,
      "Ġrelieved": 2293,
      "Ġteach": 2294,
      "ĠJenny": 2295,
      "Ġbreat": 2296,
      "Ġblew": 2297,
      "oph": 2298,
      "ife": 2299,
      "Ġneighbor": 2300,
      "Ġespecially": 2301,
      "unk": 2302,
      "Ġlad": 2303,
      "Ġrec": 2304,
      "Ġsnake": 2305,
      "Ġhope": 2306,
      "ĠEmily": 2307,
      "Ġcorner": 2308,
      "ently": 2309,
      "Ġap": 2310,
      "Ġpour": 2311,
      "ĠEverywhere": 2312,
      "Ġlarge": 2313,
      "Ġloves": 2314,
      "Ġspread": 2315,
      "Ġknee": 2316,
      "Ġwom": 2317,
      "Ġpromise": 2318,
      "Ġsal": 2319,
      "Ġgoes": 2320,
      "Ġspider": 2321,
      "Ġwoman": 2322,
      "Ġtasted": 2323,
      "Ġsmooth": 2324,
      "Ġsu": 2325,
      "Ġpass": 2326,
      "Ġpush": 2327,
      "Come": 2328,
      "Ġtalking": 2329,
      "bbles": 2330,
      "Ġputs": 2331,
      "umpy": 2332,
      "Ġwhistle": 2333,
      "Ġkitten": 2334,
      "Lucy": 2335,
      "Ġtea": 2336,
      "Ġreturn": 2337,
      "In": 2338,
      "Ġtool": 2339,
      "Ġfeet": 2340,
      "Ġconfused": 2341,
      "Ġbugs": 2342,
      "Ġhorse": 2343,
      "Ġcoin": 2344,
      "ucce": 2345,
      "Ġladder": 2346,
      "Ġphone": 2347,
      "Ġkiss": 2348,
      "Ġmatter": 2349,
      "Ġsparkly": 2350,
      "Ġprot": 2351,
      "ope": 2352,
      "Ġmach": 2353,
      "Ġmed": 2354,
      "ĠJake": 2355,
      "Ġchick": 2356,
      "Ġsucce": 2357,
      "Ġfold": 2358,
      "Ġembar": 2359,
      "ÅĵI": 2360,
      "Ġser": 2361,
      "Ġspe": 2362,
      "Ġrocket": 2363,
      "Ġembarra": 2364,
      "Ġhon": 2365,
      "Ġpizz": 2366,
      "St": 2367,
      "Ġtid": 2368,
      "Ġpool": 2369,
      "Ġstep": 2370,
      "Ġwhole": 2371,
      "als": 2372,
      "Ġoven": 2373,
      "Just": 2374,
      "ĠTV": 2375,
      "ato": 2376,
      "Ġpaw": 2377,
      "Ġgray": 2378,
      "Ġcalm": 2379,
      "Ġtaste": 2380,
      "Ġchocol": 2381,
      "Ġsupp": 2382,
      "Ġspicy": 2383,
      "getable": 2384,
      "Ġbell": 2385,
      "Ġscar": 2386,
      "Ġvegetable": 2387,
      "Ġmeadow": 2388,
      "Ġcloth": 2389,
      "Ġsplas": 2390,
      "Ġanswer": 2391,
      "Ġemp": 2392,
      "Ġign": 2393,
      "Ġhelpful": 2394,
      "Ġrob": 2395,
      "Ġspent": 2396,
      "Good": 2397,
      "ones": 2398,
      "Ġcrab": 2399,
      "Ġcoo": 2400,
      "Ġempty": 2401,
      "Ġtear": 2402,
      "ground": 2403,
      "Ġstir": 2404,
      "ute": 2405,
      "ancy": 2406,
      "Ġmind": 2407,
      "Ġgrew": 2408,
      "dle": 2409,
      "Ġring": 2410,
      "Ġban": 2411,
      "Ġteeth": 2412,
      "Ġgently": 2413,
      "Ġsticks": 2414,
      "Ġpizza": 2415,
      "ĠSt": 2416,
      "airs": 2417,
      "Ġsplash": 2418,
      "Ġwave": 2419,
      "ĠWith": 2420,
      "Ġshirt": 2421,
      "Ġseek": 2422,
      "Ġgun": 2423,
      "amed": 2424,
      "Ġbanan": 2425,
      "Ġwaiting": 2426,
      "mo": 2427,
      "ĠTeddy": 2428,
      "ying": 2429,
      "Ġasleep": 2430,
      "box": 2431,
      "Ġcarrots": 2432,
      "Ġspray": 2433,
      "den": 2434,
      "ĠLisa": 2435,
      "ĠAnn": 2436,
      "Ġcookie": 2437,
      "Ġgroup": 2438,
      "urse": 2439,
      "Ġchocolate": 2440,
      "Ġscreamed": 2441,
      "Ġfaces": 2442,
      "Ġknocked": 2443,
      "Ġpuddle": 2444,
      "Ġrobot": 2445,
      "Ġcreative": 2446,
      "kin": 2447,
      "Ġembarrassed": 2448,
      "Ġbal": 2449,
      "Ġhiding": 2450,
      "Lila": 2451,
      "iger": 2452,
      "dge": 2453,
      "Ġstret": 2454,
      "Soon": 2455,
      "lace": 2456,
      "lower": 2457,
      "ĠPeter": 2458,
      "Ġmoon": 2459,
      "Ġsnacks": 2460,
      "aul": 2461,
      "ĠKitty": 2462,
      "Ġprotect": 2463,
      "Ġfancy": 2464,
      "Ġhidden": 2465,
      "ĠRe": 2466,
      "Ġnecklace": 2467,
      "My": 2468,
      "Ġbedroom": 2469,
      "ned": 2470,
      "Ġav": 2471,
      "ĠLe": 2472,
      "Ġtreats": 2473,
      "Ġpacked": 2474,
      "Ġmot": 2475,
      "Ġseed": 2476,
      "Ġwash": 2477,
      "Ġstra": 2478,
      "ustr": 2479,
      "Ġfinish": 2480,
      "Ġnet": 2481,
      "Ġsleepy": 2482,
      "Ġroar": 2483,
      "Ġlast": 2484,
      "ird": 2485,
      "gly": 2486,
      "Ġjumping": 2487,
      "Ġtidy": 2488,
      "ĠSome": 2489,
      "elly": 2490,
      "vous": 2491,
      "Ġcirc": 2492,
      "Ġtries": 2493,
      "Ġmeant": 2494,
      "Ġugly": 2495,
      "ĠBr": 2496,
      "Ġgold": 2497,
      "Ġtest": 2498,
      "Ġfighting": 2499,
      "Ġeventually": 2500,
      "Ġfear": 2501,
      "Ġdelight": 2502,
      "Ġash": 2503,
      "Ġfeed": 2504,
      "Ġfrustr": 2505,
      "Ġmysterious": 2506,
      "Ġcross": 2507,
      "Ġgar": 2508,
      "Ġlegs": 2509,
      "Ġpin": 2510,
      "ual": 2511,
      "Ġshelf": 2512,
      "Ġval": 2513,
      "Ġrespect": 2514,
      "Ġpir": 2515,
      "Ġbarked": 2516,
      "ches": 2517,
      "ina": 2518,
      "lebr": 2519,
      "Ġchased": 2520,
      "Ġremind": 2521,
      "Ġfixed": 2522,
      "Ġdrew": 2523,
      "Ġcarried": 2524,
      "usie": 2525,
      "cap": 2526,
      "Ġstood": 2527,
      "Ġplants": 2528,
      "Ġcann": 2529,
      "Ġner": 2530,
      "Ġcelebr": 2531,
      "Mum": 2532,
      "Ġblow": 2533,
      "Ġmachine": 2534,
      "ĠGo": 2535,
      "Ġleaf": 2536,
      "Ġpowerful": 2537,
      "Ġwhenever": 2538,
      "Dad": 2539,
      "Ġhel": 2540,
      "Ġhopping": 2541,
      "Ġpolite": 2542,
      "Ġpeaceful": 2543,
      "Ġfrustrated": 2544,
      "Please": 2545,
      "ator": 2546,
      "Ġstone": 2547,
      "ours": 2548,
      "Ġclear": 2549,
      "Ġrude": 2550,
      "Ġnervous": 2551,
      "iddle": 2552,
      "Ġcannot": 2553,
      "hin": 2554,
      "Ġfil": 2555,
      "Ġdeter": 2556,
      "issors": 2557,
      "af": 2558,
      "Ġgrumpy": 2559,
      "Ġstanding": 2560,
      "Ġsol": 2561,
      "ĠJohnny": 2562,
      "Ġclass": 2563,
      "Ġcur": 2564,
      "Ġscissors": 2565,
      "Ġjew": 2566,
      "ighed": 2567,
      "Ġdeterm": 2568,
      "Ġple": 2569,
      "Ġpuzzle": 2570,
      "most": 2571,
      "Ġdecor": 2572,
      "ult": 2573,
      "ĠToday": 2574,
      "Ġpan": 2575,
      "Tommy": 2576,
      "Ġber": 2577,
      "Ġtightly": 2578,
      "Be": 2579,
      "Ġcap": 2580,
      "Ġplate": 2581,
      "ipe": 2582,
      "Ġ'": 2583,
      "Ġsour": 2584,
      "Ġstring": 2585,
      "Ġmummy": 2586,
      "Ġsheep": 2587,
      "Ġsave": 2588,
      "uce": 2589,
      "Ġtwirl": 2590,
      "ets": 2591,
      "Ġalmost": 2592,
      "ert": 2593,
      "Ġexpens": 2594,
      "Ġvegetables": 2595,
      "Ġexpensive": 2596,
      "Ġlit": 2597,
      "ĠJust": 2598,
      "Ġsel": 2599,
      "Ġpoor": 2600,
      "ony": 2601,
      "pack": 2602,
      "Ġpillow": 2603,
      "iff": 2604,
      "Ġtomorrow": 2605,
      "Ġwander": 2606,
      "Ġmiddle": 2607,
      "Ġdrum": 2608,
      "Ġforgive": 2609,
      "ĠTheir": 2610,
      "Ġship": 2611,
      "Ġgarage": 2612,
      "Ġcloset": 2613,
      "Ġmatch": 2614,
      "Ġbored": 2615,
      "Ġbake": 2616,
      "Ġoften": 2617,
      "Ġline": 2618,
      "Ġsold": 2619,
      "Ġcri": 2620,
      "Ġnumber": 2621,
      "Ġtrust": 2622,
      "Ġbrush": 2623,
      "lves": 2624,
      "Ġballs": 2625,
      "Ġexam": 2626,
      "inted": 2627,
      "Ġlem": 2628,
      "Ġsailed": 2629,
      "Molly": 2630,
      "Ġmov": 2631,
      "Ġpolice": 2632,
      "Ġyelled": 2633,
      "Ġlanded": 2634,
      "izzy": 2635,
      "Ġmessy": 2636,
      "oop": 2637,
      "Ġeld": 2638,
      "Ġvan": 2639,
      "Ġmighty": 2640,
      "Ġselfish": 2641,
      "Ġsque": 2642,
      "cy": 2643,
      "ote": 2644,
      "Ġord": 2645,
      "Ġmarch": 2646,
      "Ġspend": 2647,
      "Ġdig": 2648,
      "illi": 2649,
      "ym": 2650,
      "ĠZ": 2651,
      "Ġmissed": 2652,
      "Ġgener": 2653,
      "Ġbreath": 2654,
      "Ġsandwich": 2655,
      "Ġmaybe": 2656,
      "Ġplayground": 2657,
      "Ġforward": 2658,
      "Ġshore": 2659,
      "Ġtells": 2660,
      "osaur": 2661,
      "light": 2662,
      "obby": 2663,
      "Ġfavour": 2664,
      "Ġdisappo": 2665,
      "Ġstuff": 2666,
      "illed": 2667,
      "umbled": 2668,
      "Ġgate": 2669,
      "Ġdetermined": 2670,
      "Ġones": 2671,
      "Ġfig": 2672,
      "Ġeager": 2673,
      "aking": 2674,
      "Ġthese": 2675,
      "Ġfluffy": 2676,
      "Ġscarf": 2677,
      "Now": 2678,
      "Ġhears": 2679,
      "ĠLeo": 2680,
      "ĠMark": 2681,
      "Ġlazy": 2682,
      "Ġfavourite": 2683,
      "Ġfamous": 2684,
      "Ġspoil": 2685,
      "ĠPlease": 2686,
      "fast": 2687,
      "Ġtick": 2688,
      "ates": 2689,
      "Ġrad": 2690,
      "Ġexcite": 2691,
      "Ġdistance": 2692,
      "Ġglass": 2693,
      "ĠBl": 2694,
      "ĠBrown": 2695,
      "Ġtent": 2696,
      "ots": 2697,
      "Ġreg": 2698,
      "Ġhang": 2699,
      "Ġeggs": 2700,
      "Ġquestions": 2701,
      "Ġgathered": 2702,
      "Ġhonest": 2703,
      "ella": 2704,
      "Ġbreakfast": 2705,
      "Ġhi": 2706,
      "Ġscr": 2707,
      "ital": 2708,
      "arl": 2709,
      "ĠBe": 2710,
      "Ġjelly": 2711,
      "Ġdinosaur": 2712,
      "Ġcomfortable": 2713,
      "Ġsna": 2714,
      "Ġhours": 2715,
      "Ġnut": 2716,
      "ĠMummy": 2717,
      "Ġdancing": 2718,
      "Ġunus": 2719,
      "Ġunusual": 2720,
      "Ġque": 2721,
      "Ġanswered": 2722,
      "Ġelderly": 2723,
      "Where": 2724,
      "Ġlying": 2725,
      "Ġpri": 2726,
      "Ġwalks": 2727,
      "Ġmotor": 2728,
      "Jim": 2729,
      "Ġknight": 2730,
      "Ġflag": 2731,
      "Ġadventur": 2732,
      "Ġhosp": 2733,
      "Ġskipped": 2734,
      "Ġchew": 2735,
      "ĠLittle": 2736,
      "Ġgas": 2737,
      "Ġasking": 2738,
      "Ġteam": 2739,
      "Stop": 2740,
      "Ġhospital": 2741,
      "Ġworking": 2742,
      "Ġsil": 2743,
      "Ġcand": 2744,
      "ĠTogether": 2745,
      "Ġfake": 2746,
      "Ġweak": 2747,
      "ĠWhy": 2748,
      "Ġboring": 2749,
      "Ġdisappointed": 2750,
      "Ġwhisp": 2751,
      "Ġfruits": 2752,
      "Ġgenerous": 2753,
      "To": 2754,
      "ti": 2755,
      "Ġchest": 2756,
      "Ġborrow": 2757,
      "Ġthick": 2758,
      "Ġadventurous": 2759,
      "Ġfridge": 2760,
      "Ġmedic": 2761,
      "Ġadd": 2762,
      "Ġwaves": 2763,
      "ĠSusie": 2764,
      "Ġjog": 2765,
      "Ġclown": 2766,
      "Ġtrucks": 2767,
      "Ġfinger": 2768,
      "Ġeasy": 2769,
      "Ġdeer": 2770,
      "Ġmic": 2771,
      "mb": 2772,
      "Ġpray": 2773,
      "Ġsmelly": 2774,
      "'d": 2775,
      "ete": 2776,
      "Ġrare": 2777,
      "Ġtaught": 2778,
      "Ġbrothers": 2779,
      "bin": 2780,
      "ĠEven": 2781,
      "Ġmarket": 2782,
      "Ġmap": 2783,
      "imp": 2784,
      "Ġboard": 2785,
      "Ġglue": 2786,
      "ĠAt": 2787,
      "Ġpassed": 2788,
      "Ġcrawl": 2789,
      "Ġmedicine": 2790,
      "Ġpay": 2791,
      "Ġang": 2792,
      "ipper": 2793,
      "port": 2794,
      "Ġnods": 2795,
      "Ġdiscovered": 2796,
      "Ġqueen": 2797,
      "Ġrid": 2798,
      "Ġtag": 2799,
      "Ġcabin": 2800,
      "Mama": 2801,
      "erp": 2802,
      "ĠDon": 2803,
      "Ġknowing": 2804,
      "Ġwrote": 2805,
      "Ġboss": 2806,
      "Ġcovered": 2807,
      "Ġexcitement": 2808,
      "Ġcam": 2809,
      "illar": 2810,
      "Ġcrown": 2811,
      "Ġsuit": 2812,
      "Ġcher": 2813,
      "ĠAlice": 2814,
      "Ġbecome": 2815,
      "Ġshoot": 2816,
      "Ġsharing": 2817,
      "Ġwheel": 2818,
      "Ġfeathers": 2819,
      "ushed": 2820,
      "Ġcaterp": 2821,
      "body": 2822,
      "rag": 2823,
      "Ġind": 2824,
      "Ġlock": 2825,
      "Ġsell": 2826,
      "oof": 2827,
      "Ġcaterpillar": 2828,
      "Ġescap": 2829,
      "Ġknife": 2830,
      "Ġsuccess": 2831,
      "Ġdrawing": 2832,
      "Ġashamed": 2833,
      "Ġlead": 2834,
      "Ġcover": 2835,
      "Ġvase": 2836,
      "Ġhunt": 2837,
      "Ġdest": 2838,
      "Ġstones": 2839,
      "Ġcolourful": 2840,
      "reen": 2841,
      "ĠFred": 2842,
      "Ġtoug": 2843,
      "Ġmir": 2844,
      "Ġed": 2845,
      "Ġbrilli": 2846,
      "Ġwagged": 2847,
      "ork": 2848,
      "orry": 2849,
      "Ġspace": 2850,
      "emo": 2851,
      "Ġsweetie": 2852,
      "Ġjuicy": 2853,
      "Ġbranc": 2854,
      "Ġdecide": 2855,
      "ĠBlue": 2856,
      "Ġbrilliant": 2857,
      "Ġtiger": 2858,
      "Ġfis": 2859,
      "Ġgiggled": 2860,
      "Ġbranches": 2861,
      "Ġsoap": 2862,
      "ops": 2863,
      "Ġdogs": 2864,
      "Ġmoving": 2865,
      "ror": 2866,
      "Sarah": 2867,
      "Ġcries": 2868,
      "Ġwolf": 2869,
      "Ġtie": 2870,
      "ating": 2871,
      "Ġboys": 2872,
      "Who": 2873,
      "Ġtough": 2874,
      "Are": 2875,
      "Jane": 2876,
      "Ġsighed": 2877,
      "Ġpump": 2878,
      "Ġchange": 2879,
      "Ġdish": 2880,
      "Ġrough": 2881,
      "arth": 2882,
      "Ġreturned": 2883,
      "cept": 2884,
      "Ġunderstood": 2885,
      "Ġboxes": 2886,
      "ĠTweety": 2887,
      "Ġrelax": 2888,
      "Ġsight": 2889,
      "Ġfat": 2890,
      "Ġlibr": 2891,
      "Ġbathroom": 2892,
      "Ġsug": 2893,
      "Ġhorn": 2894,
      "utes": 2895,
      "Ġbald": 2896,
      "Ġhats": 2897,
      "Ġbalance": 2898,
      "Ġwagon": 2899,
      "ĠBu": 2900,
      "Ġtaken": 2901,
      "Ġchase": 2902,
      "Ġshows": 2903,
      "Ġglow": 2904,
      "Ġmeasure": 2905,
      "Ġbridge": 2906,
      "Ġflute": 2907,
      "Ġtrunk": 2908,
      "Ġperform": 2909,
      "Ġtunn": 2910,
      "Ġbubbles": 2911,
      "Ġyarn": 2912,
      "Ġincred": 2913,
      "Ġmod": 2914,
      "Ġcage": 2915,
      "ested": 2916,
      "Ġgets": 2917,
      "Ġpleased": 2918,
      "Ġnoisy": 2919,
      "Ġcost": 2920,
      "Ġsugar": 2921,
      "Ġbone": 2922,
      "Ġbirdie": 2923,
      "Ġjeal": 2924,
      "Ġminutes": 2925,
      "Ġjewel": 2926,
      "Ġgrace": 2927,
      "Ġtrue": 2928,
      "Ġpicks": 2929,
      "Ġrecord": 2930,
      "Ġmirror": 2931,
      "Ġjealous": 2932,
      "Ġrich": 2933,
      "Ġcheerful": 2934,
      "ique": 2935,
      "Ġhous": 2936,
      "Ġlog": 2937,
      "Ġclap": 2938,
      "Ġsunf": 2939,
      "work": 2940,
      "Ġstumbled": 2941,
      "Ġeye": 2942,
      "ĠRex": 2943,
      "land": 2944,
      "Ġdepend": 2945,
      "Ġcalling": 2946,
      "Ġlemon": 2947,
      "asing": 2948,
      "Ġcircles": 2949,
      "?\".": 2950,
      "Ġunique": 2951,
      "Ġlamp": 2952,
      "Ġsaved": 2953,
      "Ġyourself": 2954,
      "Ġweek": 2955,
      "oot": 2956,
      "ĠNo": 2957,
      "Ġsugg": 2958,
      "Ġfather": 2959,
      "ĠDucky": 2960,
      "Ġorganized": 2961,
      "Ġsplashed": 2962,
      "Ġjam": 2963,
      "Ġoffered": 2964,
      "Ġtowel": 2965,
      "Ġbody": 2966,
      "Ġcheck": 2967,
      "ĠElla": 2968,
      "Ġfigure": 2969,
      "ilt": 2970,
      "Ġbags": 2971,
      "Ġhouses": 2972,
      "ĠMar": 2973,
      "Ġbelonged": 2974,
      "Ġtears": 2975,
      "Ġbanana": 2976,
      "Ġruined": 2977,
      "Ġmixed": 2978,
      "Ġpil": 2979,
      "Ġtape": 2980,
      "Ġincredible": 2981,
      "tain": 2982,
      "Ġclay": 2983,
      "imed": 2984,
      "illie": 2985,
      "Ġtwist": 2986,
      "Ġkissed": 2987,
      "Ġbott": 2988,
      "Ġcamera": 2989,
      "Ġfour": 2990,
      "Ġnosy": 2991,
      "Ġhappening": 2992,
      "Ġstubb": 2993,
      "Ġtwig": 2994,
      "Me": 2995,
      "und": 2996,
      "ĠDave": 2997,
      "Ġbottom": 2998,
      "Ġstubborn": 2999,
      "Ġjack": 3000,
      "Ġmistake": 3001,
      "Ġfool": 3002,
      "Ġhero": 3003,
      "Ġbull": 3004,
      "iness": 3005,
      "Ġcity": 3006,
      "Ġturtle": 3007,
      "Ġbarn": 3008,
      "Ġcontent": 3009,
      "Ġpenc": 3010,
      "Ġbounce": 3011,
      "anut": 3012,
      "Ġwealthy": 3013,
      "selves": 3014,
      "Ġshark": 3015,
      "Ġpee": 3016,
      "Ġpointing": 3017,
      "Ġmovie": 3018,
      "Ġpencil": 3019,
      "Sally": 3020,
      "inary": 3021,
      "Ġcoins": 3022,
      "Ġenorm": 3023,
      "Ġdependable": 3024,
      "How": 3025,
      "Ġcraw": 3026,
      "Ġenormous": 3027,
      "pes": 3028,
      "Ġaw": 3029,
      "edient": 3030,
      "Ġflash": 3031,
      "Ġjoke": 3032,
      "Ġwalls": 3033,
      "ination": 3034,
      "Ġguess": 3035,
      "Ġwis": 3036,
      "Ġham": 3037,
      "Ġgoat": 3038,
      "Sp": 3039,
      "yal": 3040,
      "head": 3041,
      "Ġcrawled": 3042,
      "appy": 3043,
      "Ġadded": 3044,
      "Ġfine": 3045,
      "ĠWhile": 3046,
      "Ġedge": 3047,
      "iv": 3048,
      "Ġsword": 3049,
      "gy": 3050,
      "enny": 3051,
      "Ġwhale": 3052,
      "Ġfier": 3053,
      "ĠNemo": 3054,
      "Ġdrank": 3055,
      "Ġfoolish": 3056,
      "ĠOK": 3057,
      "Ġext": 3058,
      "Ġdiff": 3059,
      "Ġdreamed": 3060,
      "Ġwrap": 3061,
      "Ġindepend": 3062,
      "Ġdizzy": 3063,
      "Ġstream": 3064,
      "Ġswan": 3065,
      "Ġmagn": 3066,
      "Ġcompet": 3067,
      "Ġter": 3068,
      "ĠBella": 3069,
      "aged": 3070,
      "Ġballoons": 3071,
      "Ġloudly": 3072,
      "Ġdisappeared": 3073,
      "Ġguit": 3074,
      "amond": 3075,
      "Ġguitar": 3076,
      "Ġpeanut": 3077,
      "ĠWhenever": 3078,
      "Ġshells": 3079,
      "lies": 3080,
      "Ġwand": 3081,
      "Ġchar": 3082,
      "Ġears": 3083,
      "Ġfrag": 3084,
      "ory": 3085,
      "Ġsoar": 3086,
      "Ġweird": 3087,
      "Ġshone": 3088,
      "Ġgrandpa": 3089,
      "ĠMrs": 3090,
      "Ġfierce": 3091,
      "ola": 3092,
      "Ġchoose": 3093,
      "anged": 3094,
      "Ġmarble": 3095,
      "Ġobedient": 3096,
      "Ġberries": 3097,
      "Ġonce": 3098,
      "ado": 3099,
      "Ġisland": 3100,
      "cient": 3101,
      "ured": 3102,
      "iable": 3103,
      "elp": 3104,
      "Ġspun": 3105,
      "umbers": 3106,
      "Ġwrapped": 3107,
      "Ġdiamond": 3108,
      "Ġangel": 3109,
      "Ġdiffic": 3110,
      "ery": 3111,
      "Ġloyal": 3112,
      "ĠBobo": 3113,
      "Ġtools": 3114,
      "Ġmelt": 3115,
      "Ġagainst": 3116,
      "Ġfright": 3117,
      "Ġunl": 3118,
      "Ġbitter": 3119,
      "Ġthankful": 3120,
      "Ġcompetit": 3121,
      "Sue": 3122,
      "Ġmoms": 3123,
      "Ġsmoke": 3124,
      "Ġthoughtful": 3125,
      "Ġreliable": 3126,
      "Ġharm": 3127,
      "Ġtank": 3128,
      "Ġancient": 3129,
      "Ġcleaning": 3130,
      "Ġbuttons": 3131,
      "Ġchicken": 3132,
      "ĠIf": 3133,
      "Ġshake": 3134,
      "Ġslipped": 3135,
      "Ġoffice": 3136,
      "Ġpainting": 3137,
      "Ġbushes": 3138,
      "Ġindependent": 3139,
      "Ġfragile": 3140,
      "Ġwip": 3141,
      "Ġlose": 3142,
      "Ġearly": 3143,
      "Ġsunflower": 3144,
      "ĠEllie": 3145,
      "Ġdifficult": 3146,
      "oppy": 3147,
      "Ġicy": 3148,
      "Ġclum": 3149,
      "Ġhurts": 3150,
      "ache": 3151,
      "Their": 3152,
      "Ġdesign": 3153,
      "Ġcleaned": 3154,
      "Ġextra": 3155,
      "Ġburn": 3156,
      "erry": 3157,
      "Ġthu": 3158,
      "Ġstudy": 3159,
      "Ġpainted": 3160,
      "Ġnumbers": 3161,
      "Ġparrot": 3162,
      "sc": 3163,
      "year": 3164,
      "ÅĵLet": 3165,
      "Ġstraw": 3166,
      "Ġbossy": 3167,
      "Ġtunnel": 3168,
      "Sorry": 3169,
      "Ġfrown": 3170,
      "Ġaccept": 3171,
      "Ġbrightly": 3172,
      "ention": 3173,
      "ages": 3174,
      "Ġexcitedly": 3175,
      "Ġinvited": 3176,
      "Ġterri": 3177,
      "Ġok": 3178,
      "Ġstairs": 3179,
      "Ġdolp": 3180,
      "Ġtele": 3181,
      "Ġcrayon": 3182,
      "Ġprep": 3183,
      "Ġsounded": 3184,
      "ĠPete": 3185,
      "Ġtravel": 3186,
      "Help": 3187,
      "ature": 3188,
      "orge": 3189,
      "Ġlean": 3190,
      "Ġwake": 3191,
      "Ġliz": 3192,
      "Ġswe": 3193,
      "Ġyours": 3194,
      "Ġarg": 3195,
      "Ġhairy": 3196,
      "Ġclumsy": 3197,
      "Mummy": 3198,
      "keep": 3199,
      "Ġnod": 3200,
      "Ġtomato": 3201,
      "Ġcone": 3202,
      "ĠBobby": 3203,
      "Ġpepper": 3204,
      "Ġkinds": 3205,
      "Ġlouder": 3206,
      "Ġmole": 3207,
      "Ġthirst": 3208,
      "Ġpicking": 3209,
      "Ġrealised": 3210,
      "zed": 3211,
      "Ġheal": 3212,
      "Ġsearching": 3213,
      "uggled": 3214,
      "Ġimpressed": 3215,
      "ready": 3216,
      "ĠSn": 3217,
      "Ġexcla": 3218,
      "Ġbloom": 3219,
      "ext": 3220,
      "irp": 3221,
      "Ġlicked": 3222,
      "Ġplayful": 3223,
      "Ġbuilt": 3224,
      "Ġsquee": 3225,
      "Ġexclaimed": 3226,
      "ject": 3227,
      "Ġnorm": 3228,
      "Ġbarber": 3229,
      "Ġalready": 3230,
      "Ġskin": 3231,
      "Ġarrow": 3232,
      "Ġtrump": 3233,
      "Ġgrown": 3234,
      "Ġdreams": 3235,
      "Ġcact": 3236,
      "Ġpumpkin": 3237,
      "While": 3238,
      "Ġpost": 3239,
      "Ġthirsty": 3240,
      "Gra": 3241,
      "Ġrug": 3242,
      "Ġjolly": 3243,
      "Ġattic": 3244,
      "Ġcircle": 3245,
      "Ġfrightened": 3246,
      "het": 3247,
      "Ġgem": 3248,
      "alk": 3249,
      "Ġabove": 3250,
      "ately": 3251,
      "Ġcounted": 3252,
      "Amy": 3253,
      "ines": 3254,
      "Ġdove": 3255,
      "Ġenjoying": 3256,
      "Ġpirate": 3257,
      "Ġfountain": 3258,
      "arry": 3259,
      "Ġstove": 3260,
      "Ġcere": 3261,
      "lla": 3262,
      "Ġlifted": 3263,
      "Ġsuggested": 3264,
      "Ġstage": 3265,
      "Ġlibrary": 3266,
      "Ġnormal": 3267,
      "Ġlow": 3268,
      "Ġspilled": 3269,
      "Ġsorts": 3270,
      "Ġcrack": 3271,
      "Ġcactus": 3272,
      "Ġsudden": 3273,
      "Ġbeet": 3274,
      "Ġspag": 3275,
      "hetti": 3276,
      "Ġbur": 3277,
      "Ġlearning": 3278,
      "Ġdesk": 3279,
      "dom": 3280,
      "Ġyet": 3281,
      "Ġscare": 3282,
      "Ġenvel": 3283,
      "Ġcreate": 3284,
      "Ġdelicate": 3285,
      "Ġcostum": 3286,
      "Ġneeds": 3287,
      "Ġavo": 3288,
      "Jimmy": 3289,
      "Spot": 3290,
      "Ġdull": 3291,
      "Ġbean": 3292,
      "Ġmanaged": 3293,
      "Ġrode": 3294,
      "Ġkindness": 3295,
      "Ġpale": 3296,
      "Ġgraceful": 3297,
      "Ġtrumpet": 3298,
      "Ġspaghetti": 3299,
      "eorge": 3300,
      "Ġref": 3301,
      "Ġuseful": 3302,
      "Ġtummy": 3303,
      "isk": 3304,
      "Ġscreen": 3305,
      "Ġing": 3306,
      "Ġsauce": 3307,
      "Ġroof": 3308,
      "ĠRose": 3309,
      "Ġpenny": 3310,
      "Ġimpress": 3311,
      "Ġspoiled": 3312,
      "Ġlizard": 3313,
      "Ġhoop": 3314,
      "ĠMy": 3315,
      "Ġboats": 3316,
      "Ġword": 3317,
      "Ġhelm": 3318,
      "Ġcharming": 3319,
      "Ġstri": 3320,
      "Ġusing": 3321,
      "Ġescape": 3322,
      "cing": 3323,
      "Ġfre": 3324,
      "Ġflex": 3325,
      "Ġlights": 3326,
      "uper": 3327,
      "Ġpoured": 3328,
      "Ġingred": 3329,
      "Ġcro": 3330,
      "Ġhelps": 3331,
      "Ġlab": 3332,
      "oomy": 3333,
      "keeper": 3334,
      "Ġgir": 3335,
      "Ġthunder": 3336,
      "Ġnotice": 3337,
      "Ġhose": 3338,
      "Ġkicked": 3339,
      "Ġordinary": 3340,
      "Ġingredient": 3341,
      "Al": 3342,
      "Ġtooth": 3343,
      "robe": 3344,
      "ĠRed": 3345,
      "Ġyog": 3346,
      "ĠEnd": 3347,
      "berries": 3348,
      "Ġstronger": 3349,
      "Ġmeans": 3350,
      "Ġcompass": 3351,
      "Ġsalad": 3352,
      "Ġtoast": 3353,
      "Ġpow": 3354,
      "Ġfork": 3355,
      "Ġdriving": 3356,
      "uddy": 3357,
      "Ġcareless": 3358,
      "Joe": 3359,
      "Ġchose": 3360,
      "Ġbatter": 3361,
      "Ġingredients": 3362,
      "Ġcop": 3363,
      "olog": 3364,
      "aced": 3365,
      "Ġfalls": 3366,
      "Ġsaying": 3367,
      "Ġcarp": 3368,
      "Ġbase": 3369,
      "atter": 3370,
      "Ġtowers": 3371,
      "Ġserious": 3372,
      "Ġterrible": 3373,
      "ress": 3374,
      "Ġdough": 3375,
      "Ġanx": 3376,
      "Ġgiving": 3377,
      "Ġsparkled": 3378,
      "Ġcereal": 3379,
      "corn": 3380,
      "Ġwarned": 3381,
      "Ġcarrying": 3382,
      "Ġadmired": 3383,
      "ellig": 3384,
      "oby": 3385,
      "Ġpup": 3386,
      "Ġlaughs": 3387,
      "Ġpractice": 3388,
      "Ġhumble": 3389,
      "Ġapolog": 3390,
      "Ġenvelope": 3391,
      "Ġearth": 3392,
      "Ġrep": 3393,
      "Ġintellig": 3394,
      "Ġraced": 3395,
      "Ġflashlight": 3396,
      "Ġshape": 3397,
      "gest": 3398,
      "Ġhay": 3399,
      "Ġrat": 3400,
      "ĠFr": 3401,
      "Ġseeds": 3402,
      "Ġspeed": 3403,
      "Ġfresh": 3404,
      "There": 3405,
      "Ġmoder": 3406,
      "berry": 3407,
      "Ġuncle": 3408,
      "Ġcooking": 3409,
      "Well": 3410,
      "Ġregular": 3411,
      "Ġflexible": 3412,
      "Ġmel": 3413,
      "Ġtas": 3414,
      "Ġgrand": 3415,
      "Ġsquare": 3416,
      "Ġjacket": 3417,
      "com": 3418,
      "Ġbiggest": 3419,
      "Ġzip": 3420,
      "Ġresc": 3421,
      "Ġhipp": 3422,
      "bled": 3423,
      "Ġbump": 3424,
      "Ġpant": 3425,
      "tless": 3426,
      "ĠWh": 3427,
      "oe": 3428,
      "Ġbeak": 3429,
      "Ġimpat": 3430,
      "Ġgifted": 3431,
      "Ġsolve": 3432,
      "Ġimpressive": 3433,
      "Ġanxious": 3434,
      "Ġson": 3435,
      "Ġwing": 3436,
      "Ġsafely": 3437,
      "Ġmetal": 3438,
      "Ġcollar": 3439,
      "Ġcompassion": 3440,
      "inal": 3441,
      "Ġrestaur": 3442,
      "Ġwheels": 3443,
      "Ġenth": 3444,
      "Ġfingers": 3445,
      "Ġbeetle": 3446,
      "Ġmodern": 3447,
      "Ġrestaurant": 3448,
      "anny": 3449,
      "Ġorig": 3450,
      "Ġrub": 3451,
      "Ġtask": 3452,
      "Ġscoot": 3453,
      "Ġcomb": 3454,
      "Ġhunter": 3455,
      "Ġtimes": 3456,
      "ĠMandy": 3457,
      "Ġquestion": 3458,
      "Ġways": 3459,
      "Ġrestless": 3460,
      "ĠTweetie": 3461,
      "Ġsaf": 3462,
      "ĠMike": 3463,
      "Ġexplored": 3464,
      "Ġcheap": 3465,
      "Ġcountry": 3466,
      "Ġpige": 3467,
      "Ġintelligent": 3468,
      "Ġenthus": 3469,
      "Ġforth": 3470,
      "rage": 3471,
      "Ġskip": 3472,
      "Ġstranger": 3473,
      "Ġeng": 3474,
      "Ġpopcorn": 3475,
      "Ġimpatient": 3476,
      "Ġhappiness": 3477,
      "Ġguard": 3478,
      "Ġpersist": 3479,
      "Ġslides": 3480,
      "Ġnurse": 3481,
      "Ġload": 3482,
      "Ġlaw": 3483,
      "Ġjoined": 3484,
      "Ġdiscover": 3485,
      "Ġcudd": 3486,
      "Ġmis": 3487,
      "Ġsmaller": 3488,
      "Ġpopular": 3489,
      "Ġrushed": 3490,
      "Ġbees": 3491,
      "!\".": 3492,
      "âĤ¬âĢ": 3493,
      "Ġpeeked": 3494,
      "Ġdeliver": 3495,
      "Ġsuccessful": 3496,
      "Ġoriginal": 3497,
      "ither": 3498,
      "Ġshowing": 3499,
      "Ġunk": 3500,
      "Ġmissing": 3501,
      "Ġstretch": 3502,
      "ÅĵLetÃ¢": 3503,
      "ĠSoph": 3504,
      "Ġoat": 3505,
      "Ġhandle": 3506,
      "Ġsne": 3507,
      "Ġcarpet": 3508,
      "Ġattract": 3509,
      "apped": 3510,
      "ud": 3511,
      "Ġcards": 3512,
      "Ġgum": 3513,
      "wards": 3514,
      "illa": 3515,
      "Ġrefused": 3516,
      "Ġbent": 3517,
      "ĠAlex": 3518,
      "Ġseem": 3519,
      "Ġenv": 3520,
      "Ġharder": 3521,
      "Ġbi": 3522,
      "Re": 3523,
      "Ġlocked": 3524,
      "Ġprint": 3525,
      "Ġcounting": 3526,
      "upid": 3527,
      "Ġshiver": 3528,
      "ĠFin": 3529,
      "Ġrubb": 3530,
      "Ġpatch": 3531,
      "Ġgrowing": 3532,
      "Ġscrat": 3533,
      "Ġsilver": 3534,
      "Jill": 3535,
      "Ġaunt": 3536,
      "uring": 3537,
      "ÅĵWhat": 3538,
      "ĠPaul": 3539,
      "coa": 3540,
      "Ġcupboard": 3541,
      "Ġjeep": 3542,
      "Ġfan": 3543,
      "ĠCl": 3544,
      "Here": 3545,
      "Ġstamp": 3546,
      "Ġknock": 3547,
      "Ġflour": 3548,
      "Ġhippo": 3549,
      "Ġstickers": 3550,
      "Ġdrawer": 3551,
      "Ġcomput": 3552,
      "Ġimagined": 3553,
      "Ġhuman": 3554,
      "nown": 3555,
      "Ġreminded": 3556,
      "Ġcush": 3557,
      "Ġsnee": 3558,
      "Ġacorn": 3559,
      "ĠGrandpa": 3560,
      "Ġspoke": 3561,
      "loo": 3562,
      "Ġwitch": 3563,
      "Ġenc": 3564,
      "Ġsniff": 3565,
      "Ġhammer": 3566,
      "Ġwire": 3567,
      "Ġstupid": 3568,
      "Ġallowed": 3569,
      "Ġknows": 3570,
      "Ġproudly": 3571,
      "Ġuncom": 3572,
      "Ġrece": 3573,
      "Ġchanged": 3574,
      "Ġcomplet": 3575,
      "Ġpasta": 3576,
      "Ġsuper": 3577,
      "ince": 3578,
      "Ġshine": 3579,
      "Ġunpack": 3580,
      "Ġsteal": 3581,
      "Ġwindows": 3582,
      "Ġpersistent": 3583,
      "Ġahead": 3584,
      "Ġgoose": 3585,
      "Ġhalf": 3586,
      "Ġcocoa": 3587,
      "Ġsplit": 3588,
      "fortable": 3589,
      "Ġuncomfortable": 3590,
      "ĠLola": 3591,
      "Ġchasing": 3592,
      "awn": 3593,
      "Ġmath": 3594,
      "Ġmeal": 3595,
      "angar": 3596,
      "Ġdead": 3597,
      "Ġmailbox": 3598,
      "Ġcomplete": 3599,
      "ubby": 3600,
      "Ġcord": 3601,
      "ĠSh": 3602,
      "angaroo": 3603,
      "Ġhook": 3604,
      "Ġnames": 3605,
      "Ġbrace": 3606,
      "Ġpand": 3607,
      "Ġumb": 3608,
      "Ġkangaroo": 3609,
      "iew": 3610,
      "aff": 3611,
      "rn": 3612,
      "tter": 3613,
      "Ġcamp": 3614,
      "Ġmask": 3615,
      "Ġmem": 3616,
      "Ġscatter": 3617,
      "Ġlaser": 3618,
      "Ġumbre": 3619,
      "Ġthose": 3620,
      "Ġrice": 3621,
      "Ġpear": 3622,
      "Ġspring": 3623,
      "host": 3624,
      "Ġtwirled": 3625,
      "Em": 3626,
      "Ġdug": 3627,
      "Ġview": 3628,
      "time": 3629,
      "ĠPolly": 3630,
      "Ġunknown": 3631,
      "ĠSandy": 3632,
      "ĠKim": 3633,
      "Ġcelebrate": 3634,
      "ĠToby": 3635,
      "Ġghost": 3636,
      "ĠBrownie": 3637,
      "Billy": 3638,
      "ience": 3639,
      "Ġfu": 3640,
      "Ġwashed": 3641,
      "Ġol": 3642,
      "ummer": 3643,
      "Ġcows": 3644,
      "Ġcricket": 3645,
      "Ġcompassionate": 3646,
      "Ġtem": 3647,
      "Ġchubby": 3648,
      "Ġtrap": 3649,
      "Ġcrane": 3650,
      "Ġengine": 3651,
      "fa": 3652,
      "cut": 3653,
      "ffe": 3654,
      "ĠBuddy": 3655,
      "Ġtelling": 3656,
      "cod": 3657,
      "Ġresist": 3658,
      "ophone": 3659,
      "gu": 3660,
      "ision": 3661,
      "Ġattractive": 3662,
      "Ġsink": 3663,
      "Ġtheater": 3664,
      "Ġrubbed": 3665,
      "Ġdelighted": 3666,
      "Ġwiped": 3667,
      "Ġtied": 3668,
      "Ġwaff": 3669,
      "Ġdistant": 3670,
      "Ġjug": 3671,
      "Ġbutterflies": 3672,
      "Ġhedge": 3673,
      "Ġstack": 3674,
      "Ġrose": 3675,
      "Ġscale": 3676,
      "Ġpants": 3677,
      "ffee": 3678,
      "Ġdust": 3679,
      "Ġpor": 3680,
      "uth": 3681,
      "Ġcompl": 3682,
      "ĠMaria": 3683,
      "Ġhelpless": 3684,
      "Ġfinding": 3685,
      "Ġhock": 3686,
      "Ġsurf": 3687,
      "iskers": 3688,
      "Ġvine": 3689,
      "Ġparade": 3690,
      "Ġhockey": 3691,
      "vice": 3692,
      "orable": 3693,
      "Ġstat": 3694,
      "tern": 3695,
      "inde": 3696,
      "iches": 3697,
      "Ġgloomy": 3698,
      "Ġguil": 3699,
      "Ġspinning": 3700,
      "Ġthinking": 3701,
      "Ġsleeping": 3702,
      "Ġmagnet": 3703,
      "Ġdolphin": 3704,
      "Ġavoc": 3705,
      "Ġguilty": 3706,
      "stic": 3707,
      "Ġalert": 3708,
      "Ġtriang": 3709,
      "Ġtroubled": 3710,
      "Ġphot": 3711,
      "aid": 3712,
      "ĠSm": 3713,
      "Ġmuff": 3714,
      "Ġclock": 3715,
      "Ġwhispered": 3716,
      "Ġmelon": 3717,
      "Ġenthusia": 3718,
      "Ġpurse": 3719,
      "arian": 3720,
      "Ġnature": 3721,
      "Ġotter": 3722,
      "Ġreinde": 3723,
      "Ġthemselves": 3724,
      "Ġbatht": 3725,
      "Ġobser": 3726,
      "ebra": 3727,
      "Ġfilm": 3728,
      "Ġcrocod": 3729,
      "gust": 3730,
      "ugged": 3731,
      "Ġanywhere": 3732,
      "Ġpattern": 3733,
      "Ġdecorate": 3734,
      "Ġdestro": 3735,
      "Ġcompetitive": 3736,
      "Ġenthusiastic": 3737,
      "Ġow": 3738,
      "Ġdisgust": 3739,
      "Ġharmless": 3740,
      "Ġstation": 3741,
      "Ġadorable": 3742,
      "ÅĵIt": 3743,
      "ĠGeorge": 3744,
      "Ġdeaf": 3745,
      "Ġzebra": 3746,
      "Ġfurther": 3747,
      "Ġwheat": 3748,
      "Ġcartoon": 3749,
      "ĠSnow": 3750,
      "Ġpretending": 3751,
      "Ġshoe": 3752,
      "Ġcooler": 3753,
      "gging": 3754,
      "Ġvalu": 3755,
      "Ġneat": 3756,
      "Ġtricks": 3757,
      "Ġstops": 3758,
      "Ġmodest": 3759,
      "Ġscooter": 3760,
      "Ġbathtub": 3761,
      "Ġyawn": 3762,
      "Ġloll": 3763,
      "ĠJoey": 3764,
      "Ġsandwiches": 3765,
      "Ġfearful": 3766,
      "ray": 3767,
      "Ġcrazy": 3768,
      "Ġcomputer": 3769,
      "Ġumbrella": 3770,
      "Ġleop": 3771,
      "Ġhurry": 3772,
      "Ġtrack": 3773,
      "Ġtrains": 3774,
      "ĠGrace": 3775,
      "Ġpackage": 3776,
      "Ġcandle": 3777,
      "Ġhelmet": 3778,
      "Ġthread": 3779,
      "Ġcoffee": 3780,
      "ĠYour": 3781,
      "Ġorder": 3782,
      "ĠcouldnÃ¢": 3783,
      "Ġpotato": 3784,
      "Ġmicr": 3785,
      "aby": 3786,
      "Ġax": 3787,
      "Ġhall": 3788,
      "ĠMillie": 3789,
      "Ġaftern": 3790,
      "Ġpengu": 3791,
      "Ġshrimp": 3792,
      "Ġencou": 3793,
      "case": 3794,
      "Ġsend": 3795,
      "Ġjet": 3796,
      "ĠPat": 3797,
      "Ġpainter": 3798,
      "Ġlollip": 3799,
      "Ġafternoon": 3800,
      "Ġitself": 3801,
      "Ġsoldier": 3802,
      "Ġenvious": 3803,
      "Ġreindeer": 3804,
      "we": 3805,
      "Ġsofa": 3806,
      "ĠBunny": 3807,
      "Ġreco": 3808,
      "Ġtrop": 3809,
      "Ġpilot": 3810,
      "Ġpigeon": 3811,
      "Ġholds": 3812,
      "Ġdreaming": 3813,
      "Ġprize": 3814,
      "ĠPe": 3815,
      "Ġleaving": 3816,
      "Ġairport": 3817,
      "Ġporch": 3818,
      "cu": 3819,
      "Ġpony": 3820,
      "Ġkay": 3821,
      "Ġbracelet": 3822,
      "Ġmicrophone": 3823,
      "Ġtire": 3824,
      "ric": 3825,
      "Ġcats": 3826,
      "ĠAndy": 3827,
      "Ġorganize": 3828,
      "Ġtrophy": 3829,
      "Ġshield": 3830,
      "Ġener": 3831,
      "Ġraining": 3832,
      "Ġfireman": 3833,
      "Ġharsh": 3834,
      "Ġbin": 3835,
      "ano": 3836,
      "Ġboots": 3837,
      "opus": 3838,
      "ctopus": 3839,
      "Ġperm": 3840,
      "lcano": 3841,
      "Ġdoesn": 3842,
      "Ġturkey": 3843,
      "Ġpracticed": 3844,
      "ĠWhiskers": 3845,
      "Ġaxe": 3846,
      "Ġoctopus": 3847,
      "Once": 3848,
      "Ġshut": 3849,
      "Ġmush": 3850,
      "Ġnowhere": 3851,
      "Ġopens": 3852,
      "Ġvaluable": 3853,
      "ibb": 3854,
      "Ġsym": 3855,
      "Ġtorn": 3856,
      "erable": 3857,
      "Ġplaced": 3858,
      "ÅĵYes": 3859,
      "Ġobject": 3860,
      "Ġpanda": 3861,
      "Ġled": 3862,
      "Ġmill": 3863,
      "Ġshadow": 3864,
      "affe": 3865,
      "Ġmiserable": 3866,
      "gn": 3867,
      "Ġdisgusting": 3868,
      "Ġraven": 3869,
      "Ġlively": 3870,
      "Ġsummer": 3871,
      "Ġbicy": 3872,
      "Ġhanded": 3873,
      "Ġadvice": 3874,
      "astic": 3875,
      "Ġbarrel": 3876,
      "Ġbounced": 3877,
      "Ġneedle": 3878,
      "Ġfootball": 3879,
      "Ġgasped": 3880,
      "Ġgiraffe": 3881,
      "Ġten": 3882,
      "Ġpeach": 3883,
      "Ġhung": 3884,
      "Ġstarting": 3885,
      "Ġvi": 3886,
      "ĠEverything": 3887,
      "Ġanyway": 3888,
      "ips": 3889,
      "Ġpapers": 3890,
      "cycle": 3891,
      "az": 3892,
      "ses": 3893,
      "Ġera": 3894,
      "Ġnoteb": 3895,
      "Ġnobody": 3896,
      "Ġbadly": 3897,
      "ye": 3898,
      "orant": 3899,
      "Ġoy": 3900,
      "Ġgoal": 3901,
      "Ġnicely": 3902,
      "bol": 3903,
      "Ġletters": 3904,
      "Ġleopard": 3905,
      "Ġnotebook": 3906,
      "orilla": 3907,
      "Ġur": 3908,
      "Ġquar": 3909,
      "Ġbeauty": 3910,
      "Ġsweater": 3911,
      "Ġdestroy": 3912,
      "Ġsymbol": 3913,
      "ĠLook": 3914,
      "stairs": 3915,
      "aches": 3916,
      "Ġcushion": 3917,
      "Ġcrocodile": 3918,
      "Ġeraser": 3919,
      "Ġants": 3920,
      "Ġbri": 3921,
      "Ġhive": 3922,
      "stri": 3923,
      "Ġcryst": 3924,
      "Ġmonkeys": 3925,
      "Ġsteps": 3926,
      "enry": 3927,
      "Ġsailor": 3928,
      "Ġrecogn": 3929,
      "Ġbet": 3930,
      "ĠTr": 3931,
      "ict": 3932,
      "Ġstrugg": 3933,
      "Ġending": 3934,
      "arlie": 3935,
      "ĠSmith": 3936,
      "kelet": 3937,
      "Ġtruth": 3938,
      "Ġreading": 3939,
      "Ġstretched": 3940,
      "ccol": 3941,
      "Ġins": 3942,
      "Ġsock": 3943,
      "Ġgolf": 3944,
      "Ġagree": 3945,
      "Ġvest": 3946,
      "Ġmixer": 3947,
      "Ġignorant": 3948,
      "ccoli": 3949,
      "Ġlions": 3950,
      "Ġshocked": 3951,
      "Ġcane": 3952,
      "used": 3953,
      "Ġsandbox": 3954,
      "Ġsecond": 3955,
      "Ġgiggle": 3956,
      "Ġsalt": 3957,
      "hino": 3958,
      "Ġholes": 3959,
      "Ġvolcano": 3960,
      "Ġtripped": 3961,
      "Ġmushroom": 3962,
      "Go": 3963,
      "Ġmop": 3964,
      "Ġink": 3965,
      "Ġsnuggled": 3966,
      "ĠRos": 3967,
      "Ġfilthy": 3968,
      "Ġgorilla": 3969,
      "iron": 3970,
      "seum": 3971,
      "Ġunlock": 3972,
      "aled": 3973,
      "Ġstarts": 3974,
      "Ġimpro": 3975,
      "Ġzipper": 3976,
      "olin": 3977,
      "Ġsupport": 3978,
      "Ġbaseball": 3979,
      "Ġmug": 3980,
      "Ġbeep": 3981,
      "Ġshort": 3982,
      "Ġwhist": 3983,
      "Ġtap": 3984,
      "Ġmuseum": 3985,
      "Ġtray": 3986,
      "Ġpair": 3987,
      "Ġhaircut": 3988,
      "hood": 3989,
      "Ġsticker": 3990,
      "Ġmessage": 3991,
      "Ġfields": 3992,
      "keleton": 3993,
      "Ġinf": 3994,
      "Ġchance": 3995,
      "Ġpeek": 3996,
      "Ġpolish": 3997,
      "Ġadmire": 3998,
      "Ġnail": 3999,
      "Ġolder": 4000,
      "Benny": 4001,
      "Ġstirred": 4002,
      "Ġstuffed": 4003,
      "Ġrhino": 4004,
      "ĠBill": 4005,
      "Ġquite": 4006,
      "Ġtrick": 4007,
      "Ġrules": 4008,
      "ĠSophie": 4009,
      "Ġstatue": 4010,
      "Ġbicycle": 4011,
      "erc": 4012,
      "ief": 4013,
      "Ġpoint": 4014,
      "ceros": 4015,
      "Ġbarking": 4016,
      "Ġkayak": 4017,
      "Ġpipe": 4018,
      "Ġfactor": 4019,
      "Ġexplain": 4020,
      "Ġmarched": 4021,
      "Ġtreasures": 4022,
      "Ġpastry": 4023,
      "Ġspeak": 4024,
      "cream": 4025,
      "Ġcree": 4026,
      "Ġped": 4027,
      "Ġroared": 4028,
      "Ġpressed": 4029,
      "Ġsort": 4030,
      "Ġpushing": 4031,
      "Ġpaws": 4032,
      "Ġsoc": 4033,
      "Ġsadly": 4034,
      "Ġswitch": 4035,
      "Ġbroccoli": 4036,
      "Ġdrop": 4037,
      "io": 4038,
      "ĠWill": 4039,
      "Ġfactory": 4040,
      "ĠHere": 4041,
      "Ġsunset": 4042,
      "Ġswinging": 4043,
      "Ġdesser": 4044,
      "Ġsoccer": 4045,
      "Ġsquash": 4046,
      "Ġlightning": 4047,
      "Ġincl": 4048,
      "Ġcooked": 4049,
      "strich": 4050,
      "Ġrhinoceros": 4051,
      "Ow": 4052,
      "ipping": 4053,
      "Ġpian": 4054,
      "Ġrag": 4055,
      "ĠBear": 4056,
      "Ġnote": 4057,
      "Ġtrash": 4058,
      "Ġavail": 4059,
      "Ġriding": 4060,
      "Ġskeleton": 4061,
      "Ġspell": 4062,
      "Ġpebble": 4063,
      "Ġframe": 4064,
      "Ġcreatures": 4065,
      "Ġmay": 4066,
      "Ġexerc": 4067,
      "ÅĵThat": 4068,
      "Ġclimbing": 4069,
      "Ġcabinet": 4070,
      "Ġrescue": 4071,
      "Ġi": 4072,
      "Ġgro": 4073,
      "Ġrepe": 4074,
      "Ġfriendsh": 4075,
      "Ġclub": 4076,
      "Ġimagine": 4077,
      "Ġblowing": 4078,
      "Ġstom": 4079,
      "Ġjumps": 4080,
      "Ġcourage": 4081,
      "Ġpiano": 4082,
      "Ġstared": 4083,
      "Ġleash": 4084,
      "Ġbasketball": 4085,
      "Ġcurtain": 4086,
      "Ġuniver": 4087,
      "Ġnuts": 4088,
      "Ġavailable": 4089,
      "Ġbackpack": 4090,
      "Ġbuzz": 4091,
      "Give": 4092,
      "ron": 4093,
      "ube": 4094,
      "Ġgym": 4095,
      "ĠBun": 4096,
      "Ġshaking": 4097,
      "Ġwallet": 4098,
      "Ġcolours": 4099,
      "Ġtriangle": 4100,
      "iest": 4101,
      "Ġsize": 4102,
      "Ġpad": 4103,
      "Ġchain": 4104,
      "Ġcomet": 4105,
      "izes": 4106,
      "Ġdishes": 4107,
      "Ġbikes": 4108,
      "Ġfriendship": 4109,
      "Ġhadn": 4110,
      "Ġrever": 4111,
      "Ġbubble": 4112,
      "Ġmotorcycle": 4113,
      "Ġcrystal": 4114,
      "See": 4115,
      "Ġmeas": 4116,
      "Ġlaund": 4117,
      "Ġbelt": 4118,
      "Ġdessert": 4119,
      "ef": 4120,
      "shed": 4121,
      "ĠWhere": 4122,
      "Ġputting": 4123,
      "Ġclosely": 4124,
      "ations": 4125,
      "Ġvisited": 4126,
      "Ġcrib": 4127,
      "If": 4128,
      "Ġtoil": 4129,
      "Ġdive": 4130,
      "Ġlip": 4131,
      "Ġbrighter": 4132,
      "Ġbehave": 4133,
      "Ġnapkin": 4134,
      "Ġsent": 4135,
      "Ġhut": 4136,
      "Ġstaff": 4137,
      "Ġsomewhere": 4138,
      "Ġevening": 4139,
      "Ġbandage": 4140,
      "Ġpowder": 4141,
      "âĤ¬âĢľ": 4142,
      "Ġtemp": 4143,
      "vator": 4144,
      "ecting": 4145,
      "uct": 4146,
      "Ġcherries": 4147,
      "Ġlaundry": 4148,
      "Ġtub": 4149,
      "ĠRu": 4150,
      "Ġshopkeeper": 4151,
      "Ġradish": 4152,
      "Ġquarrel": 4153,
      "Ġweather": 4154,
      "ĠAre": 4155,
      "Ġunh": 4156,
      "Ġcardboard": 4157,
      "Ġenergy": 4158,
      "ges": 4159,
      "Ġwife": 4160,
      "sses": 4161,
      "Ġelevator": 4162,
      "Ġwelcom": 4163,
      "heart": 4164,
      "Ġthief": 4165,
      "Ġviolin": 4166,
      "Yay": 4167,
      "chair": 4168,
      "ĠJerry": 4169,
      "Ġfinds": 4170,
      "Ġmarry": 4171,
      "Ġvalue": 4172,
      "Ġavocado": 4173,
      "Ġtoilet": 4174,
      "Ġribb": 4175,
      "ĠKate": 4176,
      "Ġcreek": 4177,
      "Ġtube": 4178,
      "Ġfive": 4179,
      "Ġjokes": 4180,
      "Ġcups": 4181,
      "Ġsle": 4182,
      "Ġinsist": 4183,
      "castle": 4184,
      "Ġiron": 4185,
      "Ġlime": 4186,
      "iling": 4187,
      "Ġyach": 4188,
      "Ġrot": 4189,
      "ucked": 4190,
      "Ġpole": 4191,
      "inking": 4192,
      "Ġmild": 4193,
      "Ġmama": 4194,
      "Ġseal": 4195,
      "mand": 4196,
      "Ġrolling": 4197,
      "Ġveil": 4198,
      "Ġcostume": 4199,
      "Ġsneak": 4200,
      "ĠSnowy": 4201,
      "Ġfurn": 4202,
      "Ġplastic": 4203,
      "Ġrod": 4204,
      "Ġart": 4205,
      "Ġdresses": 4206,
      "Ġsandcastle": 4207,
      "Ġcase": 4208,
      "Ġmen": 4209,
      "Ġreward": 4210,
      "Ġscrew": 4211,
      "Ġarmchair": 4212,
      "Ġdancer": 4213,
      "Ġprov": 4214,
      "Ġchickens": 4215,
      "Ġclassroom": 4216,
      "Ġyacht": 4217,
      "Ġfurnit": 4218,
      "chan": 4219,
      "Ġscold": 4220,
      "Ġgrapes": 4221,
      "Ġglove": 4222,
      "Ġgolden": 4223,
      "Ġfurniture": 4224,
      "zzy": 4225,
      "Ġlands": 4226,
      "Ġfrowned": 4227,
      "ium": 4228,
      "elery": 4229,
      "apa": 4230,
      "Ġshouts": 4231,
      "Ġpuddles": 4232,
      "Ġmeeting": 4233,
      "Mary": 4234,
      "eve": 4235,
      "par": 4236,
      "Ġlend": 4237,
      "Ġmechan": 4238,
      "Ġchecked": 4239,
      "aulif": 4240,
      "Ġinse": 4241,
      "ooped": 4242,
      "Ġreef": 4243,
      "Ġsepar": 4244,
      "Ġspir": 4245,
      "urb": 4246,
      "Ġdisturb": 4247,
      "Ġunhappy": 4248,
      "Ġther": 4249,
      "Ġcaulif": 4250,
      "render": 4251,
      "Ġeither": 4252,
      "Ġshade": 4253,
      "ĠRosie": 4254,
      "Ġinfant": 4255,
      "Ġmechanic": 4256,
      "ues": 4257,
      "Ġvac": 4258,
      "ĠGive": 4259,
      "Ġmagaz": 4260,
      "Ġpinch": 4261,
      "Ġlollipop": 4262,
      "eath": 4263,
      "Ġpun": 4264,
      "Ġostrich": 4265,
      "ĠEventually": 4266,
      "Ġbul": 4267,
      "Alice": 4268,
      "Ġweep": 4269,
      "Ġbears": 4270,
      "Ġcounter": 4271,
      "aw": 4272,
      "urch": 4273,
      "rod": 4274,
      "bbie": 4275,
      "Ġintrod": 4276,
      "Ġtrave": 4277,
      "ĠRo": 4278,
      "Ġlistening": 4279,
      "Ġclapping": 4280,
      "Ġoyster": 4281,
      "play": 4282,
      "Ġfrogs": 4283,
      "Ġfle": 4284,
      "Ġpal": 4285,
      "Ġmule": 4286,
      "Ġtrail": 4287,
      "Ġdrawings": 4288,
      "Ġjourn": 4289,
      "Ġneighbour": 4290,
      "Ġpirates": 4291,
      "Ġsizes": 4292,
      "ĠLilly": 4293,
      "hero": 4294,
      "Ġseas": 4295,
      "Ġlear": 4296,
      "Ġchim": 4297,
      "Ġmaze": 4298,
      "Ġwishes": 4299,
      "Ġbulb": 4300,
      "Ġstad": 4301,
      "Ġchirp": 4302,
      "Ġdisag": 4303,
      "Ġsurrender": 4304,
      "Ġsuperhero": 4305,
      "Ġgrocer": 4306,
      "Ġchimney": 4307,
      "Ġoil": 4308,
      "Ġplayer": 4309,
      "Ġlearnt": 4310,
      "Ġhoping": 4311,
      "Ġforgave": 4312,
      "Ġsucceed": 4313,
      "ĠAnnie": 4314,
      "Ġcauliflower": 4315,
      "Ġstadium": 4316,
      "hic": 4317,
      "any": 4318,
      "Ġshel": 4319,
      "Ġfort": 4320,
      "Ġmakeup": 4321,
      "ĠdidnÃ¢": 4322,
      "Ġpoem": 4323,
      "Ġdressed": 4324,
      "Ġfalling": 4325,
      "Ġvehic": 4326,
      "Ġbarks": 4327,
      "Ġbananas": 4328,
      "Ġleaned": 4329,
      "azz": 4330,
      "te": 4331,
      "Ġmeat": 4332,
      "Ġskill": 4333,
      "Ġkitty": 4334,
      "Ġcrow": 4335,
      "Ġfirework": 4336,
      "Ġpulls": 4337,
      "Ġpushes": 4338,
      "Ġkingdom": 4339,
      "Ġtuna": 4340,
      "Inside": 4341,
      "Daddy": 4342,
      "night": 4343,
      "Ġlid": 4344,
      "ĠSu": 4345,
      "ĠAb": 4346,
      "Ġknot": 4347,
      "ected": 4348,
      "Ġdisplay": 4349,
      "Ġprepare": 4350,
      "Ġspirit": 4351,
      "gen": 4352,
      "gie": 4353,
      "Ġwinter": 4354,
      "Ġzoomed": 4355,
      "Ġtherm": 4356,
      "bor": 4357,
      "come": 4358,
      "ippery": 4359,
      "ometer": 4360,
      "ĠCharlie": 4361,
      "Ġfisher": 4362,
      "Ġinsect": 4363,
      "Ġshelter": 4364,
      "Ġcelery": 4365,
      "Ġslippery": 4366,
      "essie": 4367,
      "Ġgiven": 4368,
      "Ġpetals": 4369,
      "Today": 4370,
      "Ġfishing": 4371,
      "Ġwelcomed": 4372,
      "Ġjournal": 4373,
      "reeze": 4374,
      "Ġshovel": 4375,
      "Ġpalace": 4376,
      "ait": 4377,
      "Ġwag": 4378,
      "Ġraft": 4379,
      "Ġsquirrels": 4380,
      "Ġharbor": 4381,
      "Ġradio": 4382,
      "Ġrepair": 4383,
      "Ġherb": 4384,
      "Ġvide": 4385,
      "Ġquit": 4386,
      "Ġvacation": 4387,
      "Ġpine": 4388,
      "ison": 4389,
      "Ġnovel": 4390,
      "Ġthermometer": 4391,
      "aked": 4392,
      "ĠHenry": 4393,
      "Ġstro": 4394,
      "Ġswamp": 4395,
      "Ġprun": 4396,
      "Ġcastles": 4397,
      "Ġvend": 4398,
      "Ġphoto": 4399,
      "atie": 4400,
      "Daisy": 4401,
      "Ġoak": 4402,
      "igail": 4403,
      "icop": 4404,
      "Ġbaking": 4405,
      "Ġsoftly": 4406,
      "Ġjudge": 4407,
      "Ġhelicop": 4408,
      "Next": 4409,
      "drobe": 4410,
      "utter": 4411,
      "Ġonion": 4412,
      "ecause": 4413,
      "Ġwardrobe": 4414,
      "Ġexper": 4415,
      "achel": 4416,
      "Ġrubber": 4417,
      "bul": 4418,
      "Ġsoil": 4419,
      "ggy": 4420,
      "Everyone": 4421,
      "Ġhelicopter": 4422,
      "low": 4423,
      "Ġwool": 4424,
      "Ġtwink": 4425,
      "ĠPapa": 4426,
      "Ġsweetheart": 4427,
      "Ġceiling": 4428,
      "Ġfile": 4429,
      "arm": 4430,
      "Ġnews": 4431,
      "Ġshoulder": 4432,
      "Ġmarried": 4433,
      "Ġbreaks": 4434,
      "Ġstraight": 4435,
      "ĠJames": 4436,
      "Ġchurch": 4437,
      "eterin": 4438,
      "Ġhanging": 4439,
      "Ġcherry": 4440,
      "gth": 4441,
      "Ġluck": 4442,
      "Ġhappier": 4443,
      "Ġvroom": 4444,
      "Ġattach": 4445,
      "Ġsprink": 4446,
      "eterinarian": 4447,
      "Ġappl": 4448,
      "xi": 4449,
      "Ġaut": 4450,
      "Ġlang": 4451,
      "iday": 4452,
      "Ġitch": 4453,
      "Ġstable": 4454,
      "Ġsheet": 4455,
      "Ġlie": 4456,
      "Ġknob": 4457,
      "Ġattention": 4458,
      "Ġglowing": 4459,
      "Ġlangu": 4460,
      "Ġpage": 4461,
      "ĠTony": 4462,
      "Ġmatt": 4463,
      "Ġfolder": 4464,
      "Ġjellyfish": 4465,
      "Ġcomplain": 4466,
      "ween": 4467,
      "Ġbetween": 4468,
      "ense": 4469,
      "Ġveterinarian": 4470,
      "Ġhol": 4471,
      "Ġsung": 4472,
      "Ġcube": 4473,
      "Ġmattress": 4474,
      "ci": 4475,
      "urt": 4476,
      "Ġflapped": 4477,
      "Ġfastest": 4478,
      "Ġdiscu": 4479,
      "Ġrespectful": 4480,
      "ĠTrue": 4481,
      "Ġfisherman": 4482,
      "ito": 4483,
      "Ġcell": 4484,
      "Ġdrops": 4485,
      "Ġpresents": 4486,
      "Ġsings": 4487,
      "ĠBaby": 4488,
      "Ġchalk": 4489,
      "Ġeagerly": 4490,
      "Ġpuzzles": 4491,
      "Ġslept": 4492,
      "ĠWould": 4493,
      "Ġtaxi": 4494,
      "aggie": 4495,
      "ĠCo": 4496,
      "Ġskirt": 4497,
      "Ġparent": 4498,
      "Ġsmells": 4499,
      "Ġrequ": 4500,
      "Ġgrill": 4501,
      "Ġended": 4502,
      "Ġsailing": 4503,
      "Ġignored": 4504,
      "Ġholiday": 4505,
      "aring": 4506,
      "Ġweigh": 4507,
      "Ġreve": 4508,
      "estig": 4509,
      "Ġinvestig": 4510,
      "Ġteleph": 4511,
      "rs": 4512,
      "reci": 4513,
      "Ġloop": 4514,
      "ores": 4515,
      "Ġrooms": 4516,
      "Ġambul": 4517,
      "Ġchairs": 4518,
      "Grandma": 4519,
      "Ġvendor": 4520,
      "Ġtelephone": 4521,
      "Ġmall": 4522,
      "llie": 4523,
      "anges": 4524,
      "Ġdoors": 4525,
      "Ġambulance": 4526,
      "Ġspear": 4527,
      "icer": 4528,
      "Ġpaid": 4529,
      "orses": 4530,
      "ĠBuzz": 4531,
      "Ġpit": 4532,
      "inky": 4533,
      "Ġappreci": 4534,
      "Ġhorses": 4535,
      "ites": 4536,
      "Ġshakes": 4537,
      "Ġthrowing": 4538,
      "Ġwigg": 4539,
      "Ġlives": 4540,
      "Ġfog": 4541,
      "ement": 4542,
      "Ġsticky": 4543,
      "Ġplanet": 4544,
      "Ġdear": 4545,
      "quito": 4546,
      "ĠdonÃ¢": 4547,
      "Ġappro": 4548,
      "ĠRob": 4549,
      "rength": 4550,
      "Ġdiary": 4551,
      "Ġinvestigate": 4552,
      "ler": 4553,
      "edy": 4554,
      "ament": 4555,
      "Ġentered": 4556,
      "Ġcrawling": 4557,
      "Bye": 4558,
      "ĠHarry": 4559,
      "amb": 4560,
      "Ġstrength": 4561,
      "Ġseeing": 4562,
      "Ġflame": 4563,
      "Ġprevent": 4564,
      "Ġcheek": 4565,
      "lasses": 4566,
      "Ġolive": 4567,
      "Ġsunglasses": 4568,
      "Ch": 4569,
      "Ġanch": 4570,
      "Ġcliff": 4571,
      "Ġperfectly": 4572,
      "Jenny": 4573,
      "Ġbreeze": 4574,
      "Ġallig": 4575,
      "Ġlawn": 4576,
      "Ġopera": 4577,
      "Ġorn": 4578,
      "ĠInst": 4579,
      "Ġalarm": 4580,
      "Ġswung": 4581,
      "Ġpoints": 4582,
      "Ġforgotten": 4583,
      "Ġgrabs": 4584,
      "Ġchess": 4585,
      "Ġunif": 4586,
      "Ġstud": 4587,
      "Ġimagination": 4588,
      "Ġexercise": 4589,
      "Ġornament": 4590,
      "men": 4591,
      "Ġrake": 4592,
      "Ġspade": 4593,
      "Ġbelongs": 4594,
      "Ġsurround": 4595,
      "Ġpassport": 4596,
      "Ġautom": 4597,
      "Ġcable": 4598,
      "asis": 4599,
      "ĠEveryday": 4600,
      "Ġquack": 4601,
      "Ġairpl": 4602,
      "Ġuniform": 4603,
      "vision": 4604,
      "Ġfloated": 4605,
      "Ġapron": 4606,
      "Ġmicro": 4607,
      "ÅĵItÃ¢": 4608,
      "Ġautomob": 4609,
      "squito": 4610,
      "ĠBet": 4611,
      "Ġboot": 4612,
      "Ġmosquito": 4613,
      "Ġfloat": 4614,
      "Ġmusician": 4615,
      "Ġserve": 4616,
      "Ġyogurt": 4617,
      "Ġoasis": 4618,
      "Ġshouldn": 4619,
      "Ġchoice": 4620,
      "Ġshrink": 4621,
      "Ġexamine": 4622,
      "Ġapologized": 4623,
      "Ġpenguin": 4624,
      "Ġreverse": 4625,
      "Ġflea": 4626,
      "ab": 4627,
      "Ġgear": 4628,
      "Ġcob": 4629,
      "ĠDanny": 4630,
      "Ġshouting": 4631,
      "Ġsteam": 4632,
      "Ġplanes": 4633,
      "Ġjewelry": 4634,
      "Ġtelevision": 4635,
      "Ġmagazine": 4636,
      "Ġvehicle": 4637,
      "Ġga": 4638,
      "ĠEach": 4639,
      "Ġflies": 4640,
      "Ġcreated": 4641,
      "Ġthanks": 4642,
      "Ġmicrosc": 4643,
      "Ġsub": 4644,
      "lend": 4645,
      "Your": 4646,
      "Ġfallen": 4647,
      "Ġstrawberry": 4648,
      "Ġmicroscope": 4649,
      "unately": 4650,
      "Ġshower": 4651,
      "Ġwriting": 4652,
      "Ġbelow": 4653,
      "Ġblackboard": 4654,
      "Ġanchor": 4655,
      "ĠUn": 4656,
      "Ġleak": 4657,
      "Ġscolded": 4658,
      "inked": 4659,
      "Ġequ": 4660,
      "Ġmoves": 4661,
      "Ġmuffin": 4662,
      "Ġimprove": 4663,
      "Ġalligator": 4664,
      "Ġblueberries": 4665,
      "Ġmint": 4666,
      "Ġmystery": 4667,
      "Ġdishw": 4668,
      "ĠClara": 4669,
      "sit": 4670,
      "Ġfeelings": 4671,
      "Ġthrows": 4672,
      "Ġbouncing": 4673,
      "Ġdishwas": 4674,
      "web": 4675,
      "Ġgrin": 4676,
      "Ġhills": 4677,
      "Ġmedal": 4678,
      "Ġdishwasher": 4679,
      "Ġtut": 4680,
      "Ġwine": 4681,
      "Ġwaving": 4682,
      "imi": 4683,
      "ĠSee": 4684,
      "Ġlotion": 4685,
      "aud": 4686,
      "Ġheaded": 4687,
      "Ġsigns": 4688,
      "Ġdisappear": 4689,
      "Emma": 4690,
      "Because": 4691,
      "estiv": 4692,
      "Ġdelay": 4693,
      "Ġbathe": 4694,
      "Ġburned": 4695,
      "Ġaccepted": 4696,
      "Ġlanguage": 4697,
      "loe": 4698,
      "Ġig": 4699,
      "Ġlumber": 4700,
      "ÅĵYou": 4701,
      "Ġbookcase": 4702,
      "Ġminute": 4703,
      "Ġsupply": 4704,
      "Ġwandered": 4705,
      "Ġcobweb": 4706,
      "ories": 4707,
      "ĠLee": 4708,
      "una": 4709,
      "Ġpopped": 4710,
      "Ġheads": 4711,
      "Ġfollows": 4712,
      "Ġfloating": 4713,
      "Ġhopes": 4714,
      "Ġsprayed": 4715,
      "Ġwaffle": 4716,
      "Ġmention": 4717,
      "Ġblinked": 4718,
      "Ġoffer": 4719,
      "ĠRachel": 4720,
      "Ġspots": 4721,
      "sing": 4722,
      "Ġfestiv": 4723,
      "Ġda": 4724,
      "Ġvet": 4725,
      "Ġminer": 4726,
      "ĠSteve": 4727,
      "Ġyawned": 4728,
      "Ġigloo": 4729,
      "seek": 4730,
      "umble": 4731,
      "Ġranch": 4732,
      "Ġcrash": 4733,
      "Together": 4734,
      "Ġsir": 4735,
      "ĠTina": 4736,
      "ising": 4737,
      "Ġsaus": 4738,
      "Ġalive": 4739,
      "ĠAbigail": 4740,
      "ĠInstead": 4741,
      "..": 4742,
      "Ann": 4743,
      "ĊĊ": 4744,
      "Ġwipe": 4745,
      "Ġrise": 4746,
      "indy": 4747,
      "Ġquiz": 4748,
      "Ġmarbles": 4749,
      "Ġscratch": 4750,
      "Ġscattered": 4751,
      "Ġautomobile": 4752,
      "ĠTed": 4753,
      "ssible": 4754,
      "Ġapart": 4755,
      "Ġbeans": 4756,
      "Eventually": 4757,
      "alley": 4758,
      "Ġpoked": 4759,
      "ĠSpike": 4760,
      "Ġmailman": 4761,
      "Ġsplashing": 4762,
      "Ġwhisper": 4763,
      "ĠRuby": 4764,
      "Ġnation": 4765,
      "Ġplates": 4766,
      "elcome": 4767,
      "Ġsunr": 4768,
      "Ġremove": 4769,
      "Ġdemand": 4770,
      "Ġsparkle": 4771,
      "Ġenter": 4772,
      "Ġeasily": 4773,
      "Ġspending": 4774,
      "Ġdestination": 4775,
      "Ġlemonade": 4776,
      "ĠFreddy": 4777,
      "Ġfauc": 4778,
      "Ġflutter": 4779,
      "Ġmemories": 4780,
      "'.": 4781,
      "ĠIÃ¢": 4782,
      "sters": 4783,
      "Ġoranges": 4784,
      "Ġstruc": 4785,
      "ĠKing": 4786,
      "ups": 4787,
      "Ġberry": 4788,
      "Ġoats": 4789,
      "Ġsniffed": 4790,
      "Ġwags": 4791,
      "Ġapplaud": 4792,
      "Ġstructure": 4793,
      "Wait": 4794,
      "amber": 4795,
      "Ġplays": 4796,
      "Ġhelper": 4797,
      "Ġpress": 4798,
      "Ġkneel": 4799,
      "Ġtaller": 4800,
      "Ġfreez": 4801,
      "Ġmistakes": 4802,
      "Ġribbon": 4803,
      "ipp": 4804,
      "yer": 4805,
      "Ġthumb": 4806,
      "Ġfaucet": 4807,
      "Little": 4808,
      "nies": 4809,
      "ero": 4810,
      "Ġjunk": 4811,
      "ĠWho": 4812,
      "ipment": 4813,
      "Ġcalend": 4814,
      "Ġinclud": 4815,
      "Ġsi": 4816,
      "Ġsuff": 4817,
      "Ġvalley": 4818,
      "Ġbury": 4819,
      "Ġjogging": 4820,
      "Ġrabbits": 4821,
      "Ġclaw": 4822,
      "Ġhotel": 4823,
      "Ġcollected": 4824,
      "Ġringing": 4825,
      "Ġstrawberries": 4826,
      "Ġbumped": 4827,
      "Ġairplane": 4828,
      "Ġcalendar": 4829,
      "Ġtoes": 4830,
      "Ġwashing": 4831,
      "ĠHelp": 4832,
      "Ġpoppy": 4833,
      "Ġshrugged": 4834,
      "Ġsqueeze": 4835,
      "Ġseparate": 4836,
      "Ġdaisy": 4837,
      "Ġpoke": 4838,
      "Ġargue": 4839,
      "Ġlawyer": 4840,
      "Ġobserve": 4841,
      "Ġsunrise": 4842,
      "Ġfought": 4843,
      "Ġport": 4844,
      "Ġpages": 4845,
      "place": 4846,
      "uckily": 4847,
      "Ġamazement": 4848,
      "Ġcoats": 4849,
      "ĠGod": 4850,
      "Ġequipment": 4851,
      "itter": 4852,
      "Ġshooting": 4853,
      "Ġlabel": 4854,
      "Ġfuel": 4855,
      "Ġtucked": 4856,
      "Ġmanage": 4857,
      "Ġwrites": 4858,
      "ĠNext": 4859,
      "Ġfiref": 4860,
      "ĠKatie": 4861,
      "Ġworms": 4862,
      "Ġyoga": 4863,
      "Ġbattery": 4864,
      "Ġfestival": 4865,
      "Ġcakes": 4866,
      "ĠMimi": 4867,
      "Ġsparkling": 4868,
      "Ġhappens": 4869,
      "Ġcelebrated": 4870,
      "Ġskills": 4871,
      "Ġtutor": 4872,
      "Ġsince": 4873,
      "ĠMiss": 4874,
      "Ġisn": 4875,
      "Ġsport": 4876,
      "Ġchamber": 4877,
      "Ġgreedy": 4878,
      "Ġblankets": 4879,
      "Ġcaptain": 4880,
      "Ġtemple": 4881,
      "Did": 4882,
      "ived": 4883,
      "chie": 4884,
      "Ġcared": 4885,
      "ionary": 4886,
      "Ġpastel": 4887,
      "Ġbalanc": 4888,
      "Ġcrossed": 4889,
      "omm": 4890,
      "Ġevent": 4891,
      "ĠIts": 4892,
      "icing": 4893,
      "opl": 4894,
      "Ġchores": 4895,
      "Ġincre": 4896,
      "ictionary": 4897,
      "right": 4898,
      "Ġslice": 4899,
      "Ġraz": 4900,
      "Ġappear": 4901,
      "Ġquietly": 4902,
      "Ġapproached": 4903,
      "iers": 4904,
      "vet": 4905,
      "ĊĠ": 4906,
      "ĠMay": 4907,
      "raged": 4908,
      "âĤ¬.": 4909,
      "Ġsqueezed": 4910,
      "ommend": 4911,
      "ring": 4912,
      "Ġlily": 4913,
      "Ġlugg": 4914,
      "Ġcre": 4915,
      "Ġwaste": 4916,
      "Ġworth": 4917,
      "Ġideas": 4918,
      "Ġignore": 4919,
      "Ġtornado": 4920,
      "Ġble": 4921,
      "Ġpra": 4922,
      "Ġnewsp": 4923,
      "Ġgrey": 4924,
      "Ġsits": 4925,
      "Ġmustache": 4926,
      "Ġrecommend": 4927,
      "Ġluggage": 4928,
      "Ġtide": 4929,
      "Ġpur": 4930,
      "Ġsett": 4931,
      "fortunately": 4932,
      "Ġrefre": 4933,
      "Ġvideo": 4934,
      "Ġexperience": 4935,
      "Ġrazor": 4936,
      "iately": 4937,
      "lier": 4938,
      "Ġdictionary": 4939,
      "Ġpalm": 4940,
      "Ġweap": 4941,
      "aper": 4942,
      "Ġtease": 4943,
      "Ġsurprises": 4944,
      "Ġclimbs": 4945,
      "mediately": 4946,
      "Ġticket": 4947,
      "Ġstomach": 4948,
      "Ġchirping": 4949,
      "mm": 4950,
      "Ġtug": 4951,
      "Ġaer": 4952,
      "Ġupstairs": 4953,
      "Ġinvite": 4954,
      "Ġordered": 4955,
      "Ġpeanuts": 4956,
      "Ġprovide": 4957,
      "Ġaeropl": 4958,
      "Ġelephants": 4959,
      "Ġnone": 4960,
      "Ġblueberry": 4961,
      "Ġfireplace": 4962,
      "Ġadmir": 4963,
      "Ġsoldiers": 4964,
      "Ġregret": 4965,
      "ives": 4966,
      "Ġyield": 4967,
      "Ġscore": 4968,
      "Ġlaught": 4969,
      "Ġpigs": 4970,
      "Ġhers": 4971,
      "ĠPenny": 4972,
      "Ġstruggling": 4973,
      "ĠitÃ¢": 4974,
      "Ġyucky": 4975,
      "Ġknown": 4976,
      "Ġburied": 4977,
      "Ġdrain": 4978,
      "Ġsetting": 4979,
      "Ġgifts": 4980,
      "Ġearlier": 4981,
      "Ġinstr": 4982,
      "Ġmeowed": 4983,
      "ction": 4984,
      "Ġbravely": 4985,
      "Ġfollowing": 4986,
      "Ġperfu": 4987,
      "Ġrelaxed": 4988,
      "Ġsigh": 4989,
      "Ġgust": 4990,
      "utty": 4991,
      "Ġsty": 4992,
      "Ġtrade": 4993,
      "Ġburning": 4994,
      "Ġurge": 4995,
      "Ġlaughter": 4996,
      "Ġbak": 4997,
      "Ġlect": 4998,
      "Ġkisses": 4999,
      "Ġsnap": 5000,
      "Ġcartoons": 5001,
      "Ġclaws": 5002,
      "Ġlecture": 5003,
      "Fl": 5004,
      "Is": 5005,
      "mother": 5006,
      "Ġraise": 5007,
      "Ġsteak": 5008,
      "Ġpaints": 5009,
      "Ġcandles": 5010,
      "Ġbuzzing": 5011,
      "Tweet": 5012,
      "Ġtore": 5013,
      "Ġtong": 5014,
      "Ġroot": 5015,
      "Ġskipping": 5016,
      "unday": 5017,
      "Ġsneeze": 5018,
      "Ġperfume": 5019,
      "Will": 5020,
      "sity": 5021,
      "Ġrow": 5022,
      "Ġeaten": 5023,
      "Ġletting": 5024,
      "Ġvanished": 5025,
      "Ġpermit": 5026,
      "Ġinsisted": 5027,
      "Ġscooped": 5028,
      "Ġhardly": 5029,
      "Ġgrowled": 5030,
      "Ġguy": 5031,
      "Ġbelieved": 5032,
      "Ġbuckle": 5033,
      "ĠRemy": 5034,
      "Ġnewspaper": 5035,
      "riger": 5036,
      "ety": 5037,
      "allow": 5038,
      "Ġreaches": 5039,
      "ĠJul": 5040,
      "Ġsettle": 5041,
      "Ġmarching": 5042,
      "Ġrefriger": 5043,
      "Ġrefrigerator": 5044,
      "Ġbill": 5045,
      "ĠSunday": 5046,
      "ĠMaggie": 5047,
      "Ġjazz": 5048,
      "Ġpaused": 5049,
      "Ġpanic": 5050,
      "Ġtrusted": 5051,
      "Ġsafety": 5052,
      "Ġgrocery": 5053,
      "Ġdiscuss": 5054,
      "Ġsubway": 5055,
      "Yuck": 5056,
      "ishing": 5057,
      "ari": 5058,
      "ĠJoy": 5059,
      "Ġhurting": 5060,
      "Ġpulling": 5061,
      "Ġcollecting": 5062,
      "Ġhearts": 5063,
      "Ġreceive": 5064,
      "Ġreceived": 5065,
      "Ġuniversity": 5066,
      "Ġsettled": 5067,
      "oral": 5068,
      "ĠMilly": 5069,
      "Ġracing": 5070,
      "Thanks": 5071,
      "Ġcrunch": 5072,
      "Ġhated": 5073,
      "Ġrecognized": 5074,
      "ĠCoco": 5075,
      "Ġbother": 5076,
      "Ġpist": 5077,
      "Ġrush": 5078,
      "ĠIs": 5079,
      "Ġsew": 5080,
      "Ġfasc": 5081,
      "ĠDan": 5082,
      "Ġcircus": 5083,
      "Ġsnapped": 5084,
      "Ġdestroyed": 5085,
      "Ġmenu": 5086,
      "First": 5087,
      "Ġhom": 5088,
      "Ġdigg": 5089,
      "Ġshamp": 5090,
      "Ġfash": 5091,
      "Ġcaring": 5092,
      "Ġcomf": 5093,
      "Ġbathrobe": 5094,
      "Ġmelted": 5095,
      "Ġrepeat": 5096,
      "Ġaeroplane": 5097,
      "Ġshampoo": 5098,
      "Ġstitch": 5099,
      "Ġbeg": 5100,
      "Ġjogged": 5101,
      "Ġpatiently": 5102,
      "Ġtomatoes": 5103,
      "Ġpistol": 5104,
      "house": 5105,
      "ĠV": 5106,
      "Ġunite": 5107,
      "Ġconf": 5108,
      "Ġbeef": 5109,
      "ĠChloe": 5110,
      "With": 5111,
      "lvet": 5112,
      "Ġshed": 5113,
      "Ġlicks": 5114,
      "Ġbrus": 5115,
      "Ġcoal": 5116,
      "Ġmyself": 5117,
      "Ġglowed": 5118,
      "Ġrained": 5119,
      "Ġparts": 5120,
      "Ġvelvet": 5121,
      "Ġanswers": 5122,
      "ĠBefore": 5123,
      "Ġprayed": 5124,
      "ĠBubbles": 5125,
      "Ġearthqu": 5126,
      "ĠPeople": 5127,
      "Ġfascin": 5128,
      "Ġdigging": 5129,
      "Ġcomfy": 5130,
      "All": 5131,
      "anna": 5132,
      "xture": 5133,
      "Ġdrinking": 5134,
      "Ġsocks": 5135,
      "Ġshot": 5136,
      "ĠChr": 5137,
      "Ġmodel": 5138,
      "Ġwhistling": 5139,
      "kins": 5140,
      "Ġtoe": 5141,
      "Ġdried": 5142,
      "Ġdire": 5143,
      "Ġitem": 5144,
      "Ġbegged": 5145,
      "Ġdoggy": 5146,
      "Ġsunlight": 5147,
      "Ġkeeping": 5148,
      "Ġwarmth": 5149,
      "Ġsparkles": 5150,
      "Ġpupil": 5151,
      "looking": 5152,
      "Ġfreezer": 5153,
      "do": 5154,
      "Ġsimp": 5155,
      "Ġbang": 5156,
      "Ġemer": 5157,
      "Ġencouraged": 5158,
      "Ġweapon": 5159,
      "Ġtongue": 5160,
      "angers": 5161,
      "Ġskull": 5162,
      "Ġslip": 5163,
      "Ġglo": 5164,
      "Ġmass": 5165,
      "Ġplanted": 5166,
      "Ġturning": 5167,
      "ah": 5168,
      "ls": 5169,
      "Ġhesit": 5170,
      "Ġlic": 5171,
      "antly": 5172,
      "htray": 5173,
      "Ġashtray": 5174,
      "!\",": 5175,
      "Ġwatered": 5176,
      "Ġsteel": 5177,
      "Ġrestore": 5178,
      "Ġdeeper": 5179,
      "Ġtwisted": 5180,
      "Ġpatterns": 5181,
      "ĠTw": 5182,
      "Ġsaving": 5183,
      "Ġhist": 5184,
      "Ġcalls": 5185,
      "Ġchef": 5186,
      "Ġbookshe": 5187,
      "Ġbes": 5188,
      "Ġlick": 5189,
      "ĠBeth": 5190,
      "Ġlaid": 5191,
      "Ġprop": 5192,
      "Ġunderstanding": 5193,
      "Ġjewels": 5194,
      "Ġbleed": 5195,
      "Ġpraised": 5196,
      "Ġhistory": 5197,
      "Ġdare": 5198,
      "Ġflood": 5199,
      "Ġimmediately": 5200,
      "ĠNutty": 5201,
      "Ġbuildings": 5202,
      "ĠFloppy": 5203,
      "ĠOr": 5204,
      "Ġdecorations": 5205,
      "Ġweeks": 5206,
      "Ġmeasured": 5207,
      "Mark": 5208,
      "Ġachie": 5209,
      "Ġheat": 5210,
      "Ġrhy": 5211,
      "Ġsore": 5212,
      "Ġwherever": 5213,
      "Ġmatches": 5214,
      "Ġteaching": 5215,
      "Welcome": 5216,
      "Ġalright": 5217,
      "Ġbrid": 5218,
      "ÅĵNo": 5219,
      "Sammy": 5220,
      "Ġspoons": 5221,
      "Before": 5222,
      "Ġbrick": 5223,
      "Mandy": 5224,
      "Ġcopper": 5225,
      "Ġwatches": 5226,
      "Ġworks": 5227,
      "Ġneighborhood": 5228,
      "Ġpunish": 5229,
      "Ġrevealed": 5230,
      "Ġfashion": 5231,
      "Ġearthquake": 5232,
      "act": 5233,
      "walk": 5234,
      "Ġbun": 5235,
      "ities": 5236,
      "Ġflav": 5237,
      "ĠCar": 5238,
      "Ġmoments": 5239,
      "Ġhits": 5240,
      "Ġclearing": 5241,
      "Ġpermiss": 5242,
      "Peter": 5243,
      "Sh": 5244,
      "Ġsip": 5245,
      "Ġgirls": 5246,
      "Ġtracks": 5247,
      "Ġreplace": 5248,
      "Ġmissile": 5249,
      "ĠOl": 5250,
      "Ġselling": 5251,
      "Ġgloves": 5252,
      "Ġlicense": 5253,
      "Ġbookshelf": 5254,
      "Ġpermission": 5255,
      "'ve": 5256,
      "Ġguns": 5257,
      "irpy": 5258,
      "Ġhomes": 5259,
      "Ġmitten": 5260,
      "Ġbeamed": 5261,
      "Ġpoison": 5262,
      "Ġglitter": 5263,
      "Ġtremb": 5264,
      "Ġtalent": 5265,
      "osity": 5266,
      "Ġmarkers": 5267,
      "Ġprice": 5268,
      "Ġhanger": 5269,
      "Ġjail": 5270,
      "Ġscur": 5271,
      "ĠCat": 5272,
      "Ġraised": 5273,
      "Ġremain": 5274,
      "Ġthrilled": 5275,
      "Ġchewed": 5276,
      "Ġcuddled": 5277,
      "Ġgrinned": 5278,
      "Would": 5279,
      "eday": 5280,
      "Ġrust": 5281,
      "ĠLiz": 5282,
      "Ġpride": 5283,
      "thm": 5284,
      "Ġinvit": 5285,
      "Ġcostumes": 5286,
      "ÅĵThatÃ¢": 5287,
      "Ġrequest": 5288,
      "Ouch": 5289,
      "osed": 5290,
      "Ġwre": 5291,
      "Ġhate": 5292,
      "Ġpanc": 5293,
      "Ġwhip": 5294,
      "terday": 5295,
      "ĠCindy": 5296,
      "Ġgrape": 5297,
      "emember": 5298,
      "ĠJenna": 5299,
      "Ġsidewalk": 5300,
      "Ġrides": 5301,
      "Ġdisagreed": 5302,
      "Ġappreciate": 5303,
      "allen": 5304,
      "Ġspit": 5305,
      "ĠFro": 5306,
      "Ġcub": 5307,
      "Ġcontain": 5308,
      "Ġbeside": 5309,
      "Ġbridges": 5310,
      "\",": 5311,
      "neath": 5312,
      "Ġgain": 5313,
      "Ġbreathe": 5314,
      "Ġcurled": 5315,
      "Ġgrandmother": 5316,
      "uesday": 5317,
      "Ġsurrounded": 5318,
      "nce": 5319,
      "ĠTuesday": 5320,
      "amie": 5321,
      "Ġspill": 5322,
      "Ġchallen": 5323,
      "Ġunderground": 5324,
      "Ġshopping": 5325,
      "Ġstrip": 5326,
      "ĠBetsy": 5327,
      "Ġadmiring": 5328,
      "Ġtip": 5329,
      "ĠHop": 5330,
      "Ġwanting": 5331,
      "Ġweren": 5332,
      "Ġchir": 5333,
      "Ġcutting": 5334,
      "ĠAnne": 5335,
      "dam": 5336,
      "ging": 5337,
      "ĠLucky": 5338,
      "These": 5339,
      "Ġsomeday": 5340,
      "ases": 5341,
      "Ġfamil": 5342,
      "Ġsuffer": 5343,
      "Ġchirped": 5344,
      "Lisa": 5345,
      "Ġremained": 5346,
      "Ġzipped": 5347,
      "Ġperched": 5348,
      "Ġrested": 5349,
      "Ġpears": 5350,
      "Ġbricks": 5351,
      "Ġmineral": 5352,
      "Qu": 5353,
      "cc": 5354,
      "ora": 5355,
      "etch": 5356,
      "Ġpeered": 5357,
      "Ġrail": 5358,
      "laire": 5359,
      "Ġawe": 5360,
      "Ġwaffles": 5361,
      "Ġbunnies": 5362,
      "Not": 5363,
      "ĠMat": 5364,
      "Ġscoop": 5365,
      "Ġoper": 5366,
      "Ġwond": 5367,
      "Ġsnowball": 5368,
      "cles": 5369,
      "Ġwaist": 5370,
      "Ġwarning": 5371,
      "Ġcrashed": 5372,
      "Ġzooming": 5373,
      "Ġsafari": 5374,
      "Ġbillboard": 5375,
      "Ġcrunchy": 5376,
      "Ex": 5377,
      "apping": 5378,
      "zag": 5379,
      "Ġsist": 5380,
      "Ġfed": 5381,
      "Ġlamb": 5382,
      "Ġpets": 5383,
      "Ġexamined": 5384,
      "Ġintroduc": 5385,
      "Ġstyle": 5386,
      "Ġrhythm": 5387,
      "ĠLater": 5388,
      "Ġmudd": 5389,
      "bbled": 5390,
      "ĠJosh": 5391,
      "izard": 5392,
      "Ġmonsters": 5393,
      "avid": 5394,
      "Ġproblems": 5395,
      "Ġsprinkles": 5396,
      "oved": 5397,
      "ude": 5398,
      "Ġduring": 5399,
      "Ġpitch": 5400,
      "ĠHave": 5401,
      "Ġsoared": 5402,
      "Ġwarn": 5403,
      "Ġvisiting": 5404,
      "Ġvillag": 5405,
      "Ġsupposed": 5406,
      "Ġargued": 5407,
      "Ġcountryside": 5408,
      "Ġsisters": 5409,
      "Ġmuddy": 5410,
      "hest": 5411,
      "Ġweighed": 5412,
      "Ġbites": 5413,
      "Ġattached": 5414,
      "Ġmountains": 5415,
      "Ġpracticing": 5416,
      "ĠSuzy": 5417,
      "Ġfascinated": 5418,
      "Ġleather": 5419,
      "Ġlets": 5420,
      "Ġours": 5421,
      "Ġdrinks": 5422,
      "ĠZoe": 5423,
      "ha": 5424,
      "son": 5425,
      "uture": 5426,
      "Ġhurric": 5427,
      "Ġremem": 5428,
      "Ġdifference": 5429,
      "Ġwooden": 5430,
      "Ġbringing": 5431,
      "Ġsecrets": 5432,
      "Ġmovies": 5433,
      "Ġdinosaurs": 5434,
      "Ġtwigs": 5435,
      "ĠFrank": 5436,
      "Ġacorns": 5437,
      "xy": 5438,
      "Ġfuture": 5439,
      "Ġeff": 5440,
      "asp": 5441,
      "Ġbrain": 5442,
      "ĠNot": 5443,
      "ÅĵIÃ¢": 5444,
      "Ġcuddle": 5445,
      "Ġwhistled": 5446,
      "Ġpedal": 5447,
      "Ġlandscap": 5448,
      "Ġsausage": 5449,
      "Ġrefreshed": 5450,
      "Ġobe": 5451,
      "ĠAm": 5452,
      "ĠFo": 5453,
      "Ġzero": 5454,
      "Ġmouths": 5455,
      "Ġcollection": 5456,
      "Ġseats": 5457,
      "Ġsliding": 5458,
      "Ġsolved": 5459,
      "Ġprepared": 5460,
      "Ġtravell": 5461,
      "Ġsimple": 5462,
      "Jen": 5463,
      "Mmm": 5464,
      "Ġnavy": 5465,
      "Ġbeat": 5466,
      "Ġoutdo": 5467,
      "Ġpretti": 5468,
      "Ġunderneath": 5469,
      "ĠGood": 5470,
      "Ġactually": 5471,
      "Ġpillows": 5472,
      "Ġcrept": 5473,
      "Ġmassage": 5474,
      "Ġprettiest": 5475,
      "Ġdecision": 5476,
      "Ġvent": 5477,
      "Ġowned": 5478,
      "ship": 5479,
      "Ġcompany": 5480,
      "ĠChirpy": 5481,
      "Ġprune": 5482,
      "Ġfirefight": 5483,
      "ĠLuna": 5484,
      "Ġweight": 5485,
      "Ġbrings": 5486,
      "Ġbrushed": 5487,
      "ÅĵLook": 5488,
      "Ġfixing": 5489,
      "Ġdiscovery": 5490,
      "Ġrespons": 5491,
      "Ġtickets": 5492,
      "Ready": 5493,
      "Ġagreement": 5494,
      "Fluffy": 5495,
      "Ġpancakes": 5496,
      "Ġhurricane": 5497,
      "Ġwizard": 5498,
      "omas": 5499,
      "igzag": 5500,
      "ĠMe": 5501,
      "Ġgotten": 5502,
      "Ġeveryday": 5503,
      "Ġsneezed": 5504,
      "Ġneighbourhood": 5505,
      "Ġvillagers": 5506,
      "Ġobey": 5507,
      "bers": 5508,
      "mare": 5509,
      "Ġsix": 5510,
      "ĠTilly": 5511,
      "atch": 5512,
      "Ġworse": 5513,
      "Ġpossible": 5514,
      "Ġbottles": 5515,
      "Ġguessed": 5516,
      "ided": 5517,
      "Ġmeow": 5518,
      "Ġarea": 5519,
      "ĠJessie": 5520,
      "Ġrang": 5521,
      "Ġblouse": 5522,
      "Ġstruck": 5523,
      "Ġcones": 5524,
      "Johnny": 5525,
      "Ġeasier": 5526,
      "Ġmuffins": 5527,
      "cage": 5528,
      "Ġbare": 5529,
      "Ġbones": 5530,
      "Ġripped": 5531,
      "Ġbirdcage": 5532,
      "Ġflap": 5533,
      "Ġblood": 5534,
      "Ġnightmare": 5535,
      "Ġswims": 5536,
      "Ġneighbors": 5537,
      "ĠOllie": 5538,
      "Ġpinched": 5539,
      "Ġsnail": 5540,
      "Ġmentioned": 5541,
      "Ok": 5542,
      "mble": 5543,
      "Ġdownstairs": 5544,
      "Ġbrand": 5545,
      "Ġtremble": 5546,
      "Ġbeds": 5547,
      "Ġparked": 5548,
      "Ġtune": 5549,
      "Ġoperation": 5550,
      "ĠSunny": 5551,
      "Ġstole": 5552,
      "Ġwisdom": 5553,
      "Ġshivered": 5554,
      "Emily": 5555,
      "Ġemergen": 5556,
      "Ġinvitation": 5557,
      "Ġlandscape": 5558,
      "ĠYes": 5559,
      "Ġwest": 5560,
      "riage": 5561,
      "Ġimage": 5562,
      "ÅĵWe": 5563,
      "ĠPoppy": 5564,
      "Ġfreeze": 5565,
      "Ġdisturbed": 5566,
      "Ġincluded": 5567,
      "Ġintroduced": 5568,
      "Kitty": 5569,
      "ux": 5570,
      "aded": 5571,
      "enty": 5572,
      "Ġteasp": 5573,
      "Ġvoices": 5574,
      "Ġplanned": 5575,
      "Ġbouncy": 5576,
      "Ġactiv": 5577,
      "Ġpadd": 5578,
      "Ġteaspoon": 5579,
      "fit": 5580,
      "nie": 5581,
      "Ġstruggled": 5582,
      "Ġcatching": 5583,
      "Ġcamping": 5584,
      "Ġwonders": 5585,
      "Ġoutdoors": 5586,
      "bies": 5587,
      "Ġlung": 5588,
      "Ġlux": 5589,
      "Ġcal": 5590,
      "ĠJan": 5591,
      "ĠDavid": 5592,
      "Ġpeel": 5593,
      "Ġpearl": 5594,
      "Ġapologize": 5595,
      "Ġmeasuring": 5596,
      "Ġstudied": 5597,
      "Ġbrushes": 5598,
      "Jake": 5599,
      "Le": 5600,
      "Sometimes": 5601,
      "uing": 5602,
      "Ġx": 5603,
      "ĠHoppy": 5604,
      "Ġbend": 5605,
      "ĠItÃ¢": 5606,
      "Ġbabies": 5607,
      "Ġrecognize": 5608,
      "Ġwreck": 5609,
      "xygen": 5610,
      "ĠTiny": 5611,
      "imy": 5612,
      "Ġoutfit": 5613,
      "ĠAn": 5614,
      "ica": 5615,
      "ĠFirst": 5616,
      "Ġpupp": 5617,
      "Ġkindly": 5618,
      "Ġdraws": 5619,
      "Ġcontinue": 5620,
      "Ġcomforted": 5621,
      "Ġfolded": 5622,
      "Ġlemons": 5623,
      "Ġpiles": 5624,
      "Ġremembers": 5625,
      "Ġeffort": 5626,
      "!'": 5627,
      "uke": 5628,
      "ays": 5629,
      "Ġtrapped": 5630,
      "ĠRa": 5631,
      "ĠLetÃ¢": 5632,
      "ulu": 5633,
      "Ġmemory": 5634,
      "Ġintroduce": 5635,
      "Ġluxu": 5636,
      "iar": 5637,
      "hell": 5638,
      "ĠLi": 5639,
      "Ġexact": 5640,
      "Ġstrangers": 5641,
      "Ġbowed": 5642,
      "Ġdoctors": 5643,
      "Ġtwirling": 5644,
      "fied": 5645,
      "zie": 5646,
      "Ġoxygen": 5647,
      "Ġbecom": 5648,
      "ĠHowever": 5649,
      "Ġtastes": 5650,
      "avi": 5651,
      "omething": 5652,
      "Ġfireworks": 5653,
      "Or": 5654,
      "Ro": 5655,
      "Ġlines": 5656,
      "Ġsting": 5657,
      "isten": 5658,
      "Ġsnugg": 5659,
      "Ġhurried": 5660,
      "Ġladyb": 5661,
      "ĠSomeone": 5662,
      "Ġscratched": 5663,
      "Ġuniverse": 5664,
      "Luckily": 5665,
      "ding": 5666,
      "ides": 5667,
      "ĠPr": 5668,
      "Ġwaits": 5669,
      "Ġsteep": 5670,
      "Ġescaped": 5671,
      "Ġpowers": 5672,
      "Ġstruggle": 5673,
      "Ġguys": 5674,
      "Ġemergency": 5675,
      "Yum": 5676,
      "oed": 5677,
      "Ġti": 5678,
      "Ġtugged": 5679,
      "ĠBir": 5680,
      "ĠJess": 5681,
      "Ġdecides": 5682,
      "Ġsorting": 5683,
      "Ġcurly": 5684,
      "Ġsights": 5685,
      "Ġtonight": 5686,
      "Ġpeaches": 5687,
      "ĠPinky": 5688,
      "Ġbeneath": 5689,
      "Ġeagle": 5690,
      "Ġmachines": 5691,
      "Ġsoaring": 5692,
      "Really": 5693,
      "Ġurged": 5694,
      "Ġitems": 5695,
      "Ġbleeding": 5696,
      "Ġinch": 5697,
      "ĠBig": 5698,
      "ffic": 5699,
      "Ġtraffic": 5700,
      "Ġfiremen": 5701,
      "Ġcontro": 5702,
      "Ġpetted": 5703,
      "Ġpastels": 5704,
      "Ġshadows": 5705,
      "Ġbarely": 5706,
      "uzz": 5707,
      "Ġbeard": 5708,
      "Ġonwards": 5709,
      "Ġweb": 5710,
      "Ġofficer": 5711,
      "Ġdrag": 5712,
      "Ġrocked": 5713,
      "Ġmixing": 5714,
      "Ġpotatoes": 5715,
      "Ġpenguins": 5716,
      "Ġlips": 5717,
      "len": 5718,
      "Ġrele": 5719,
      "ÅĵCan": 5720,
      "ÅĵDon": 5721,
      "acob": 5722,
      "Ġstaring": 5723,
      "Ġcomple": 5724,
      "Ġroads": 5725,
      "Ġbloomed": 5726,
      "Ġolives": 5727,
      "Ġinstruct": 5728,
      "Ġbegin": 5729,
      "Moral": 5730,
      "die": 5731,
      "ĠClaire": 5732,
      "Ġkeeps": 5733,
      "Ġcontest": 5734,
      "Ġgathering": 5735,
      "Ġspaceship": 5736,
      "Ġcompetition": 5737,
      "Ġnails": 5738,
      "Ġdemanded": 5739,
      "Ġscurried": 5740,
      "Ġexactly": 5741,
      "Ġchat": 5742,
      "ents": 5743,
      "Ġguest": 5744,
      "Ha": 5745,
      "Susie": 5746,
      "Ġwagging": 5747,
      "Ġfetch": 5748,
      "ĠJe": 5749,
      "Ġhowever": 5750,
      "ÅĵThank": 5751,
      "ĠPip": 5752,
      "Ġzigzag": 5753,
      "ĠThomas": 5754,
      "Ġpartic": 5755,
      "Ġpouring": 5756,
      "Ġserved": 5757,
      "Ġloaded": 5758,
      "Happy": 5759,
      "Ġcaut": 5760,
      "ppers": 5761,
      "Ġhappiest": 5762,
      "Ġwhatever": 5763,
      "Ġoverjoy": 5764,
      "Ġexplorers": 5765,
      "Ġcuriosity": 5766,
      "Ġprinter": 5767,
      "Ġmission": 5768,
      "Ġcrabs": 5769,
      "Ġreminder": 5770,
      "Ġoverjoyed": 5771,
      "cious": 5772,
      "nes": 5773,
      "Ġwid": 5774,
      "Ġboom": 5775,
      "izing": 5776,
      "Ġshoulders": 5777,
      "Ġyelling": 5778,
      "ĠNina": 5779,
      "Ġplanets": 5780,
      "iggy": 5781,
      "Ġaccidents": 5782,
      "ĠUncle": 5783,
      "Ġboo": 5784,
      "Ġeight": 5785,
      "ĠJamie": 5786,
      "Ġknelt": 5787,
      "Ġago": 5788,
      "Ġune": 5789,
      "Ġwaiter": 5790,
      "Ġseesaw": 5791,
      "Ġpaintings": 5792,
      "Ġkeys": 5793,
      "Ġrubbing": 5794,
      "ĠJulie": 5795,
      "Ġluxury": 5796,
      "vin": 5797,
      "ednes": 5798,
      "int": 5799,
      "Ġmice": 5800,
      "Ġgained": 5801,
      "ĠThese": 5802,
      "adly": 5803,
      "Ġloose": 5804,
      "ĠAdam": 5805,
      "Ġfab": 5806,
      "Ġstripes": 5807,
      "Ġseason": 5808,
      "Ġcrowd": 5809,
      "Ġprunes": 5810,
      "ednesday": 5811,
      "eke": 5812,
      "hins": 5813,
      "rr": 5814,
      "Ġtour": 5815,
      "Ġmister": 5816,
      "Ġpies": 5817,
      "Ġthro": 5818,
      "ĠLulu": 5819,
      "une": 5820,
      "elia": 5821,
      "ĠWednesday": 5822,
      "Ġbudge": 5823,
      "ĠNick": 5824,
      "Ġfrosting": 5825,
      "Ġdrift": 5826,
      "Ġmuscles": 5827,
      "Ġspiders": 5828,
      "Ġpassing": 5829,
      "Ġstirring": 5830,
      "Ġdisagree": 5831,
      "zen": 5832,
      "ĠSomething": 5833,
      "ira": 5834,
      "anta": 5835,
      "Ġanytime": 5836,
      "ÅĵHello": 5837,
      "Ġwondering": 5838,
      "Ġsilence": 5839,
      "Ġsuitcase": 5840,
      "Ġcrackers": 5841,
      "Ġsucceeded": 5842,
      "Ġfabric": 5843,
      ".'": 5844,
      "Soph": 5845,
      "rance": 5846,
      "Ġallow": 5847,
      "Ġslapped": 5848,
      "Ġslimy": 5849,
      "Ġeats": 5850,
      "ĠPipp": 5851,
      "Ġcrumb": 5852,
      "Ġpencils": 5853,
      "Ġchallenge": 5854,
      "Ġparticular": 5855,
      "Ġfara": 5856,
      "ayla": 5857,
      "Ġshelves": 5858,
      "Ġsoak": 5859,
      "inda": 5860,
      "ashed": 5861,
      "Ġbye": 5862,
      "ĠOut": 5863,
      "Ġhonk": 5864,
      "Ġcape": 5865,
      "Ġfaraway": 5866,
      "ales": 5867,
      "ĠLizzy": 5868,
      "Ġann": 5869,
      "Ġhomework": 5870,
      "Ġopin": 5871,
      "Ġkeeper": 5872,
      "Ġrealize": 5873,
      "Ġprotected": 5874,
      "Ġscru": 5875,
      "lowly": 5876,
      "Ġventured": 5877,
      "aster": 5878,
      "Ġwit": 5879,
      "Ġrumble": 5880,
      "Ġcreation": 5881,
      "Ġwandering": 5882,
      "Ġdolphins": 5883,
      "Ġburrow": 5884,
      "Ġtwinkling": 5885,
      "annah": 5886,
      "Ġbecoming": 5887,
      "Ġreleased": 5888,
      "shing": 5889,
      "edding": 5890,
      "Ġbumpy": 5891,
      "ishes": 5892,
      "ĠMany": 5893,
      "Ġsweets": 5894,
      "Ġfrozen": 5895,
      "Ġpockets": 5896,
      "Ġmarker": 5897,
      "Ġinterest": 5898,
      "Ġobserved": 5899,
      "Ġcurtains": 5900,
      "Ġitchy": 5901,
      "Ġthroat": 5902,
      "riend": 5903,
      "Ġbaked": 5904,
      "Ġbuckets": 5905,
      "Ġdecorated": 5906,
      "âĤ¬âĢĿ": 5907,
      "ib": 5908,
      "Ġ1": 5909,
      "Ġnicer": 5910,
      "Ġloving": 5911,
      "Ġexit": 5912,
      "Ġpoking": 5913,
      "bbing": 5914,
      "Ġtexture": 5915,
      "Ġsatis": 5916,
      "Ġwinning": 5917,
      "Ġhighest": 5918,
      "Ġtrips": 5919,
      "Ġgiggling": 5920,
      "Andy": 5921,
      "Ġrockets": 5922,
      "Ġmotion": 5923,
      "Ġstretching": 5924,
      "Ġtrembling": 5925,
      "Ġinstructions": 5926,
      "Mar": 5927,
      "Remember": 5928,
      "xp": 5929,
      "Ġsides": 5930,
      "ena": 5931,
      "Ġripe": 5932,
      "ĠJon": 5933,
      "Ġtheirs": 5934,
      "Ġvowed": 5935,
      "ĠDolly": 5936,
      "Ġprinted": 5937,
      "Ġpolishing": 5938,
      "Ġscreams": 5939,
      "Ġcoloured": 5940,
      "Ġsupplies": 5941,
      "Ġspraying": 5942,
      "Ġleader": 5943,
      "Ġseashell": 5944,
      "Ġproperly": 5945,
      "Ġladybug": 5946,
      "Ġcontrol": 5947,
      "Mittens": 5948,
      "Ġbank": 5949,
      "Ġshock": 5950,
      "ĠMad": 5951,
      "Ġclick": 5952,
      "opsy": 5953,
      "Ġprecious": 5954,
      "Ġgreet": 5955,
      "Ġentrance": 5956,
      "Ġroaring": 5957,
      "Ġunlocked": 5958,
      "ĠSharing": 5959,
      "Ġstroll": 5960,
      "Ġfart": 5961,
      "Ġeast": 5962,
      "ĠChe": 5963,
      "ĠletÃ¢": 5964,
      "Ġusual": 5965,
      "ults": 5966,
      "Ġmarriage": 5967,
      "Ġdesert": 5968,
      "Ġsiren": 5969,
      "Ġincrease": 5970,
      "Ġresponsible": 5971,
      "Ġcompleted": 5972,
      "Ġunexp": 5973,
      "Ġunexpected": 5974,
      "Millie": 5975,
      "Ġsway": 5976,
      "Ġdied": 5977,
      "Ġmater": 5978,
      "Ġsticking": 5979,
      "Ġworker": 5980,
      "Ġsinger": 5981,
      "Ġruler": 5982,
      "Ġpastries": 5983,
      "Un": 5984,
      "vers": 5985,
      "Ġstare": 5986,
      "Ġshined": 5987,
      "Ġsadness": 5988,
      "Ġsorted": 5989,
      "ÅĵMommy": 5990,
      "Ġbeha": 5991,
      "Ġfigured": 5992,
      "Ġlibrarian": 5993,
      "Ġpeeking": 5994,
      "Ġsquares": 5995,
      "Ġinclude": 5996,
      "uctantly": 5997,
      "Ġgazed": 5998,
      "ern": 5999,
      "Ġdam": 6000,
      "Ġheel": 6001,
      "agull": 6002,
      "Ġflat": 6003,
      "Ġrainco": 6004,
      "Ġproject": 6005,
      "oline": 6006,
      "Ġkicking": 6007,
      "Ġentire": 6008,
      "Ġhorns": 6009,
      "Ġsurface": 6010,
      "Ġrepeated": 6011,
      "Ġpunished": 6012,
      "ĠChrist": 6013,
      "ĠRabbit": 6014,
      "Ġmateri": 6015,
      "Ġraincoat": 6016,
      "Ah": 6017,
      "zing": 6018,
      "Ġbunch": 6019,
      "rious": 6020,
      "Ġrelease": 6021,
      "aren": 6022,
      "Ġblink": 6023,
      "Ġstrings": 6024,
      "thank": 6025,
      "though": 6026,
      "Ġruin": 6027,
      "Ġtouching": 6028,
      "Ġexpected": 6029,
      "Ġrainbows": 6030,
      "Ġacted": 6031,
      "Ġsolut": 6032,
      "Ġsneaked": 6033,
      "Ġcompletely": 6034,
      "Ġkneeled": 6035,
      "ĠMatt": 6036,
      "ÅĵDonÃ¢": 6037,
      "ody": 6038,
      "ott": 6039,
      "ĠAbbie": 6040,
      "ĠKe": 6041,
      "Ġpacking": 6042,
      "Ġpots": 6043,
      "Ġscreaming": 6044,
      "However": 6045,
      "Rex": 6046,
      "Ġstealing": 6047,
      "Ġgaze": 6048,
      "Ġbalancing": 6049,
      "Ġcautious": 6050,
      "boo": 6051,
      "eed": 6052,
      "Ġwedding": 6053,
      "Ġmittens": 6054,
      "ords": 6055,
      "lee": 6056,
      "Ġstair": 6057,
      "Ġroots": 6058,
      "ĠDid": 6059,
      "ÅĵWhy": 6060,
      "Ġbroom": 6061,
      "Ġusually": 6062,
      "Ġmatching": 6063,
      "Ġstudying": 6064,
      "Ġdiscovering": 6065,
      "Ġencourage": 6066,
      "lowers": 6067,
      "Ġpurred": 6068,
      "Mr": 6069,
      "Ġtodd": 6070,
      "Ġfir": 6071,
      "Ġheav": 6072,
      "Ġseagull": 6073,
      "Ġscra": 6074,
      "Ġflames": 6075,
      "Ġdragged": 6076,
      "ĠGr": 6077,
      "ĠRobby": 6078,
      "Ġreluctantly": 6079,
      "Ġaccom": 6080,
      "Ġreaching": 6081,
      "Ġwinner": 6082,
      "Ġrecorded": 6083,
      "Ġmagnets": 6084,
      "Ġshivering": 6085,
      "Ġphotos": 6086,
      "Ġhallway": 6087,
      "Ġtraveled": 6088,
      "boy": 6089,
      "jam": 6090,
      "Ġwink": 6091,
      "Ġlied": 6092,
      "ason": 6093,
      "ÅĵOh": 6094,
      "Ġforgi": 6095,
      "Ġprincesses": 6096,
      "Ġmelting": 6097,
      "Ġwiggled": 6098,
      "ĠTwo": 6099,
      "ĠPrince": 6100,
      "jamas": 6101,
      "Dave": 6102,
      "dies": 6103,
      "lings": 6104,
      "mas": 6105,
      "ĠLinda": 6106,
      "Ġweeke": 6107,
      "ĠMa": 6108,
      "Ġchases": 6109,
      "Ġbreaking": 6110,
      "Ġtickle": 6111,
      "Ġflags": 6112,
      "Ġbalanced": 6113,
      "Ġweekend": 6114,
      "Ella": 6115,
      "Lola": 6116,
      "hello": 6117,
      "indr": 6118,
      "ĠJacob": 6119,
      "ĠCarl": 6120,
      "Ġpeppers": 6121,
      "aky": 6122,
      "Ġraindr": 6123,
      "Ġteasing": 6124,
      "Ġwarri": 6125,
      "Ġowners": 6126,
      "Ġsingle": 6127,
      "Ġpolished": 6128,
      "Ġfuzzy": 6129,
      "Ġpaddle": 6130,
      "Ġtemper": 6131,
      "ĠAmelia": 6132,
      "Ġactivities": 6133,
      "Ëľ": 6134,
      "oni": 6135,
      "ĠSanta": 6136,
      "ĠLike": 6137,
      "âĤ¬Ëľ": 6138,
      "Ġvict": 6139,
      "Ġbedtime": 6140,
      "Ġmaster": 6141,
      "Ġwritten": 6142,
      "Ġrolls": 6143,
      "Ġtickled": 6144,
      "Ġclaps": 6145,
      "Ġtasks": 6146,
      "cuse": 6147,
      "Ġweeping": 6148,
      "abel": 6149,
      "ĠUnfortunately": 6150,
      "Ġdirection": 6151,
      "Ġdragons": 6152,
      "Bun": 6153,
      "igi": 6154,
      "Ġgoodnight": 6155,
      "ÅĵThis": 6156,
      "Ġcuts": 6157,
      "hog": 6158,
      "Ġcowboy": 6159,
      "Ġsandcastles": 6160,
      "Ġherbs": 6161,
      "Ġapplauded": 6162,
      "Ġsnowballs": 6163,
      "ĠChristmas": 6164,
      "isies": 6165,
      "iles": 6166,
      "ĠSus": 6167,
      "ĠLarry": 6168,
      "Ġranger": 6169,
      "Ġpebbles": 6170,
      "Ġpajamas": 6171,
      "Ġmisses": 6172,
      "Ġglasses": 6173,
      "ĠSuzie": 6174,
      "Ġinsects": 6175,
      "Ġdaisies": 6176,
      "Ġbakery": 6177,
      "Excuse": 6178,
      "Ġaccompl": 6179,
      "hee": 6180,
      "ĠSlowly": 6181,
      "ĠBird": 6182,
      "ĠJu": 6183,
      "Ġstartled": 6184,
      "Ġworries": 6185,
      "Ġcomm": 6186,
      "Ġwrist": 6187,
      "Ġuses": 6188,
      "Ġwears": 6189,
      "Ġtallest": 6190,
      "ĠFlopsy": 6191,
      "Ġseeker": 6192,
      "Ġpoliceman": 6193,
      "Ġdusty": 6194,
      "Ġtemperature": 6195,
      "Fred": 6196,
      "gers": 6197,
      "ley": 6198,
      "Ġplenty": 6199,
      "Ġgoals": 6200,
      "Ġspi": 6201,
      "Ġchips": 6202,
      "Ġdeli": 6203,
      "Ġstrike": 6204,
      "Ġquacked": 6205,
      "Mike": 6206,
      "Ġast": 6207,
      "ĠBessie": 6208,
      "Ġcans": 6209,
      "Ġswirl": 6210,
      "angled": 6211,
      "Ġslap": 6212,
      "Ġgrant": 6213,
      "Ġsitu": 6214,
      "Ġcreating": 6215,
      "Ġhider": 6216,
      "ĠStop": 6217,
      "Ġrubs": 6218,
      "ÅĵWhatÃ¢": 6219,
      "Ġstamps": 6220,
      "Ġpedals": 6221,
      "Ġconfident": 6222,
      "Ġchefs": 6223,
      "Ġachieve": 6224,
      "Ġsnuggle": 6225,
      "Ġfarther": 6226,
      "Ġcent": 6227,
      "Ġpause": 6228,
      "ĠBoth": 6229,
      "Ġourselves": 6230,
      "Afterwards": 6231,
      "Ġsnakes": 6232,
      "Ġprayer": 6233,
      "ĠRover": 6234,
      "Ġornaments": 6235,
      "Ġraindrops": 6236,
      "Ye": 6237,
      "Ġwound": 6238,
      "Ġdared": 6239,
      "ĠTess": 6240,
      "ĠSure": 6241,
      "Ġyouth": 6242,
      "icorn": 6243,
      "ongo": 6244,
      "Ġrocking": 6245,
      "Ġunicorn": 6246,
      "Ġcracked": 6247,
      "Ġarrive": 6248,
      "Ġresult": 6249,
      "Ġdesp": 6250,
      "Ġcheering": 6251,
      "Ġscarves": 6252,
      "Ġvanish": 6253,
      "Grandpa": 6254,
      "Ġhedgehog": 6255,
      "Wh": 6256,
      "go": 6257,
      "jo": 6258,
      "ĠQu": 6259,
      "rees": 6260,
      "Ġrus": 6261,
      "ĠcanÃ¢": 6262,
      "usted": 6263,
      "Ġremoved": 6264,
      "Ġfoods": 6265,
      "ĠKayla": 6266,
      "Ġfairies": 6267,
      "ĠwasnÃ¢": 6268,
      "Ġarguing": 6269,
      "Ġhelmets": 6270,
      "Ġbumps": 6271,
      "Ġinterested": 6272,
      "Ġwarrior": 6273,
      "Bella": 6274,
      "George": 6275,
      "band": 6276,
      "ĠĠĊ": 6277,
      "Ġlined": 6278,
      "Ġspike": 6279,
      "Ġmane": 6280,
      "Ġleap": 6281,
      "ĠElly": 6282,
      "Ġlap": 6283,
      "Ġforehead": 6284,
      "Ġtowels": 6285,
      "Ġsmiley": 6286,
      "Ġworkers": 6287,
      "Ġresting": 6288,
      "ĠEmmy": 6289,
      "Ġchewing": 6290,
      "Ġcovers": 6291,
      "ĠSophia": 6292,
      "...": 6293,
      "ĠPippin": 6294,
      "Ġcrumbs": 6295,
      "Ġopinion": 6296,
      "Ġdelivery": 6297,
      "James": 6298,
      "aa": 6299,
      "Ġtim": 6300,
      "Ġwi": 6301,
      "Ġcast": 6302,
      "Ġthreat": 6303,
      "ĠLou": 6304,
      "Ġnect": 6305,
      "Ġsomebody": 6306,
      "Ġsnat": 6307,
      "ĠPam": 6308,
      "Ġkites": 6309,
      "boat": 6310,
      "ĠDoggy": 6311,
      "Ġreads": 6312,
      "Ġpointy": 6313,
      "Ġsquealed": 6314,
      "Ġknights": 6315,
      "Ġadding": 6316,
      "Ġblooming": 6317,
      "Ġtwinkle": 6318,
      "ĠRobert": 6319,
      "Annie": 6320,
      "Paul": 6321,
      "Teddy": 6322,
      "Ġden": 6323,
      "Ġdent": 6324,
      "Ġdipped": 6325,
      "immer": 6326,
      "Ġbead": 6327,
      "Ġliqu": 6328,
      "ĠBy": 6329,
      "ĠMira": 6330,
      "Ġrobb": 6331,
      "ishy": 6332,
      "ĠJacky": 6333,
      "emma": 6334,
      "Ġcoloring": 6335,
      "Ġunited": 6336,
      "Ġtractor": 6337,
      "Ġreplaced": 6338,
      "Ġprints": 6339,
      "Ġbuying": 6340,
      "Ġpatience": 6341,
      "Ġmatched": 6342,
      "Ġinviting": 6343,
      "ĠAlways": 6344,
      "Goodbye": 6345,
      "Ġsighs": 6346,
      "ĠJessica": 6347,
      "Sophie": 6348,
      "Ġsolution": 6349,
      "Ġnectar": 6350,
      "Ġliquid": 6351,
      "Ġpiggy": 6352,
      "ilo": 6353,
      "aty": 6354,
      "Ġech": 6355,
      "Ġmeals": 6356,
      "asm": 6357,
      "Ġtwin": 6358,
      "Ġbravery": 6359,
      "Ġconcer": 6360,
      "Ġsweeties": 6361,
      "Ġbars": 6362,
      "Ġnapkins": 6363,
      "Ġnetwork": 6364,
      "Ġreply": 6365,
      "Ġgroceries": 6366,
      "Ġregretted": 6367,
      "Ġbaker": 6368,
      "Leo": 6369,
      "Ġscrubbed": 6370,
      "Ġfirm": 6371,
      "cope": 6372,
      "Ġmes": 6373,
      "ana": 6374,
      "Ġstern": 6375,
      "ĠMel": 6376,
      "Ġknowled": 6377,
      "Ġtru": 6378,
      "Ġwindy": 6379,
      "ĠGigi": 6380,
      "Ġrestored": 6381,
      "Ġmarked": 6382,
      "Ġgrowling": 6383,
      "brush": 6384,
      "Ġvalued": 6385,
      "Ġpans": 6386,
      "Ġencourag": 6387,
      "Ġribbons": 6388,
      "Ġrusty": 6389,
      "Ġsatisfied": 6390,
      "Ġknowledge": 6391,
      "Fin": 6392,
      "Pete": 6393,
      "ĠY": 6394,
      "Ġmi": 6395,
      "ĠLuke": 6396,
      "ĠMuff": 6397,
      "ĠAbby": 6398,
      "Ġswooped": 6399,
      "ĠFar": 6400,
      "Ġneedles": 6401,
      "ĠGreen": 6402,
      "Ġyesterday": 6403,
      "Ġbowls": 6404,
      "Bobo": 6405,
      "Ġsuggest": 6406,
      "Ġrescued": 6407,
      "Ġunpacked": 6408,
      "ĠJeff": 6409,
      "Ġvictory": 6410,
      "Alex": 6411,
      "Rose": 6412,
      "ĠJune": 6413,
      "Ġcatches": 6414,
      "ĠSpark": 6415,
      "Ġopening": 6416,
      "Ġdrives": 6417,
      "Ġmuscle": 6418,
      "Ġcreamy": 6419,
      "Ġgrowl": 6420,
      "Ġspeaking": 6421,
      "Ġcelebration": 6422,
      "Ġjackets": 6423,
      "Ġleaning": 6424,
      "Ġhealed": 6425,
      "Ġrequested": 6426,
      "Ġcough": 6427,
      "Ġsai": 6428,
      "irts": 6429,
      "igning": 6430,
      "ĠMon": 6431,
      "urry": 6432,
      "Ġfever": 6433,
      "Ġchoo": 6434,
      "bbly": 6435,
      "ĠFor": 6436,
      "Ġstolen": 6437,
      "Ġunf": 6438,
      "Ġrule": 6439,
      "Ġdreamt": 6440,
      "Ġarrows": 6441,
      "Grace": 6442,
      "Ġseems": 6443,
      "ĠRobbie": 6444,
      "Ġfamilies": 6445,
      "Ġmesmer": 6446,
      "Ġcous": 6447,
      "iding": 6448,
      "ĠHoot": 6449,
      "ĠWater": 6450,
      "ĠCra": 6451,
      "Ġchuck": 6452,
      "Ġhugging": 6453,
      "usband": 6454,
      "Ġknees": 6455,
      "Ġcolored": 6456,
      "ĠJohnson": 6457,
      "Ġfroze": 6458,
      "Ġmiles": 6459,
      "Ġawake": 6460,
      "Ġhumans": 6461,
      "Ġsneaky": 6462,
      "Ġreveal": 6463,
      "Ġtravelled": 6464,
      "Ġfirefighters": 6465,
      "Ġbeads": 6466,
      "fl": 6467,
      "mies": 6468,
      "Ġty": 6469,
      "ĠBongo": 6470,
      "?\",": 6471,
      "Ġfoc": 6472,
      "Ġarr": 6473,
      "Ġstaying": 6474,
      "Ġimpo": 6475,
      "Ġyells": 6476,
      "Ġdarkness": 6477,
      "Joey": 6478,
      "Ġdeser": 6479,
      "Ġorganizing": 6480,
      "Ġgiraff": 6481,
      "Ġmasks": 6482,
      "Ġsib": 6483,
      "Ġsnatched": 6484,
      "Ġer": 6485,
      "Ġtig": 6486,
      "Ġfreed": 6487,
      "Ġcott": 6488,
      "Ġpout": 6489,
      "arling": 6490,
      "Ġrisk": 6491,
      "ĠLuckily": 6492,
      "Ġexha": 6493,
      "obble": 6494,
      "Ġpretends": 6495,
      "Ġparties": 6496,
      "Ġsailboat": 6497,
      "uggles": 6498,
      "Ġrelief": 6499,
      "Ġpassen": 6500,
      "Ġblows": 6501,
      "ĠZoom": 6502,
      "Ġcandies": 6503,
      "years": 6504,
      "ĠSnuggles": 6505,
      "Ġfluttered": 6506,
      "Tweety": 6507,
      "Ġcautiously": 6508,
      "Yeah": 6509,
      "Ġtruly": 6510,
      "Ġgiraffes": 6511,
      "Cl": 6512,
      "tuce": 6513,
      "urious": 6514,
      "you": 6515,
      "Ġaff": 6516,
      "Ġwow": 6517,
      "Ġhusband": 6518,
      "arter": 6519,
      "Ġrip": 6520,
      "Ġbelly": 6521,
      "ĠĊĠ": 6522,
      "Ġsmarter": 6523,
      "ĠJay": 6524,
      "Ġscales": 6525,
      "ĠEls": 6526,
      "Ġsnuck": 6527,
      "Ġlettuce": 6528,
      "Ġpens": 6529,
      "Ġcupc": 6530,
      "Ġteaches": 6531,
      "Ġcopy": 6532,
      "Ġstomped": 6533,
      "ĠMuffin": 6534,
      "pit": 6535,
      "eds": 6536,
      "ann": 6537,
      "ĠHappy": 6538,
      "ĠyouÃ¢": 6539,
      "ĠBye": 6540,
      "Ġspong": 6541,
      "Ġfault": 6542,
      "ĠEarth": 6543,
      "aura": 6544,
      "Ġcaused": 6545,
      "Ġwinked": 6546,
      "Ġgracefully": 6547,
      "Ġsiblings": 6548,
      "Ġexhausted": 6549,
      "An": 6550,
      "Mrs": 6551,
      "mallow": 6552,
      "va": 6553,
      "Ġcash": 6554,
      "ĠHannah": 6555,
      "Ġsoaked": 6556,
      "ades": 6557,
      "endy": 6558,
      "Ġworn": 6559,
      "Ġflight": 6560,
      "ĠPl": 6561,
      "ĠPo": 6562,
      "Ġgrassy": 6563,
      "shmallow": 6564,
      "Ġbehavi": 6565,
      "Ġpatted": 6566,
      "Ġradishes": 6567,
      "Ġpumpkins": 6568,
      "Ġrecording": 6569,
      "Ġtempt": 6570,
      "Ġcomplained": 6571,
      "Ġstroked": 6572,
      "Ġcheeks": 6573,
      "ĠBetty": 6574,
      "Ġrecommended": 6575,
      "Ġtipt": 6576,
      "Ġtoddler": 6577,
      "Ġimpossible": 6578,
      "Ġtigers": 6579,
      "Days": 6580,
      "Fr": 6581,
      "abby": 6582,
      "een": 6583,
      "ien": 6584,
      "ĠTi": 6585,
      "Ġeverybody": 6586,
      "Ġgrandp": 6587,
      "Ġconn": 6588,
      "ĠJaney": 6589,
      "ĠwouldnÃ¢": 6590,
      "Ġleading": 6591,
      "ĠBluey": 6592,
      "Ġlogs": 6593,
      "Ġwires": 6594,
      "Ġobjects": 6595,
      "Ġfluttering": 6596,
      "Ġpaddled": 6597,
      "ĠMick": 6598,
      "ĠAunt": 6599,
      "Ġchop": 6600,
      "aula": 6601,
      "ĠPut": 6602,
      "Ġstorekeeper": 6603,
      "Ġsailors": 6604,
      "Ġtails": 6605,
      "Ġnaps": 6606,
      "Ġdrums": 6607,
      "Ġtunnels": 6608,
      "Ġsafer": 6609,
      "Ġspikes": 6610,
      "oh": 6611,
      "ĠSadly": 6612,
      "Ġthird": 6613,
      "Ġstem": 6614,
      "ĠLil": 6615,
      "Ġsobbed": 6616,
      "ĠMomo": 6617,
      "Ġuns": 6618,
      "Ġsnowmen": 6619,
      "Ġsigned": 6620,
      "umbling": 6621,
      "Ġbaths": 6622,
      "ĠOwl": 6623,
      "izzie": 6624,
      "Ġlollipops": 6625,
      "Ġimproved": 6626,
      "Ġchuckled": 6627,
      "Ġgrandpare": 6628,
      "ky": 6629,
      "njoy": 6630,
      "rie": 6631,
      "ados": 6632,
      "Ġwept": 6633,
      "Ġseven": 6634,
      "Ġspice": 6635,
      "Ġdollhouse": 6636,
      "ĠMikey": 6637,
      "Ġavocados": 6638,
      "ĠOlive": 6639,
      "Unfortunately": 6640,
      "Ġsituation": 6641,
      "Ellie": 6642,
      "Uh": 6643,
      "wk": 6644,
      "Ġwobble": 6645,
      "Ġlimes": 6646,
      "Ġge": 6647,
      "Ġhawk": 6648,
      "Ġbadge": 6649,
      "Ġhandsome": 6650,
      "Ġlistens": 6651,
      "Ġactions": 6652,
      "Ġdiving": 6653,
      "Ġscaring": 6654,
      "ĠLeave": 6655,
      "ĠBuzzy": 6656,
      "Ġsuperheroes": 6657,
      "ĠChris": 6658,
      "ĠJudy": 6659,
      "Ab": 6660,
      "Polly": 6661,
      "cited": 6662,
      "iel": 6663,
      "ki": 6664,
      "Ġou": 6665,
      "Ġdots": 6666,
      "Ġcause": 6667,
      "Ġglee": 6668,
      "ans": 6669,
      "iled": 6670,
      "Ġyum": 6671,
      "Ġrising": 6672,
      "ntil": 6673,
      "alph": 6674,
      "ĠJones": 6675,
      "Ġfaced": 6676,
      "Ġagrees": 6677,
      "ĠFriend": 6678,
      "ĠEverybody": 6679,
      "ĠGary": 6680,
      "ĠGina": 6681,
      "Ġdresser": 6682,
      "Ġdrawers": 6683,
      "Ġsplashes": 6684,
      "Ġgems": 6685,
      "Ġdelivered": 6686,
      "Ġartist": 6687,
      "Ġsausages": 6688,
      "Ġflavor": 6689,
      "Ġannoy": 6690,
      "Ġdentist": 6691,
      "Ġsponge": 6692,
      "For": 6693,
      "Fine": 6694,
      "esome": 6695,
      "Ġonions": 6696,
      "ĠJazz": 6697,
      "ept": 6698,
      "Ġchip": 6699,
      "Ġswept": 6700,
      "Ġhandful": 6701,
      "Ġremote": 6702,
      "ths": 6703,
      "Ġcorners": 6704,
      "Ġexpect": 6705,
      "Ġsalty": 6706,
      "Ġpleasure": 6707,
      "illiam": 6708,
      "Ġbuzzed": 6709,
      "Ġdiscussed": 6710,
      "Ġhesitant": 6711,
      "Ġhesitated": 6712,
      "Ġpuppies": 6713,
      "Ġrushing": 6714,
      "Ġtiptoed": 6715,
      "Bobby": 6716,
      "During": 6717,
      "Henry": 6718,
      "Nemo": 6719,
      "Ġtangled": 6720,
      "Ġsense": 6721,
      "Ġcust": 6722,
      "atur": 6723,
      "Ġinsp": 6724,
      "ĠLena": 6725,
      "Ġyoun": 6726,
      "idey": 6727,
      "Ġtramp": 6728,
      "Ġjoking": 6729,
      "Ġamong": 6730,
      "Ġfilling": 6731,
      "Ġprotecting": 6732,
      "Ġawesome": 6733,
      "Ġvideos": 6734,
      "Ġswimsuit": 6735,
      "Roar": 6736,
      "Ġdrifted": 6737,
      "Ġcustom": 6738,
      "Ġtrampoline": 6739,
      "Maggie": 6740,
      "no": 6741,
      "Ġwasted": 6742,
      "ids": 6743,
      "Ġopp": 6744,
      "Ġnoon": 6745,
      "obody": 6746,
      "Ġimportance": 6747,
      "Ġcreations": 6748,
      "Ġstarfish": 6749,
      "ments": 6750,
      "ĠOw": 6751,
      "ĠBeing": 6752,
      "Ġclowns": 6753,
      "Ġprovided": 6754,
      "Ġpoems": 6755,
      "Ġdirect": 6756,
      "Ġachieved": 6757,
      "Ġfamiliar": 6758,
      "ĠYesterday": 6759,
      "Ġcashier": 6760,
      "Ġyounger": 6761,
      "ded": 6762,
      "ners": 6763,
      "vest": 6764,
      "Ġaud": 6765,
      "ĠTara": 6766,
      "Ġocc": 6767,
      "Ġstit": 6768,
      "Ġlosing": 6769,
      "ĠĊĊ": 6770,
      "Ġaren": 6771,
      "ĠWatch": 6772,
      "Ġwhose": 6773,
      "Ġflapping": 6774,
      "ĠJojo": 6775,
      "ÅĵHi": 6776,
      "Ġdarker": 6777,
      "Ġplanning": 6778,
      "Ġsecure": 6779,
      "Ġneighbours": 6780,
      "Ġmarks": 6781,
      "ĠZara": 6782,
      "Ġpaying": 6783,
      "Meow": 6784,
      "Ġdelivering": 6785,
      "Ġslices": 6786,
      "ĠNothing": 6787,
      "ĠFollow": 6788,
      "pr": 6789,
      "Ġwadd": 6790,
      "Ġmerry": 6791,
      "ĠSque": 6792,
      "Ġev": 6793,
      "Ġplain": 6794,
      "Ġplayers": 6795,
      "ĠMilo": 6796,
      "icked": 6797,
      "Ġbackwards": 6798,
      "Ġyourselves": 6799,
      "Ġdrawn": 6800,
      "Ġmagician": 6801,
      "Ġhides": 6802,
      "Ġdancers": 6803,
      "Ġpotion": 6804,
      "Ġhitting": 6805,
      "Ġdrivers": 6806,
      "Ġfolding": 6807,
      "Ġembarrass": 6808,
      "Ġsource": 6809,
      "Ġbasement": 6810,
      "Ġcalmed": 6811,
      "Ġforgiven": 6812,
      "ĠPrincess": 6813,
      "Ġmixture": 6814,
      "Ġafford": 6815,
      "rig": 6816,
      "Ġwan": 6817,
      "Ġmak": 6818,
      "Ġmunch": 6819,
      "ĠSc": 6820,
      "Ġpla": 6821,
      "Ġrefu": 6822,
      "Ġouts": 6823,
      "iece": 6824,
      "Ġflas": 6825,
      "Those": 6826,
      "ĠGet": 6827,
      "ĠSpidey": 6828,
      "meal": 6829,
      "Ġhoriz": 6830,
      "ĠWithout": 6831,
      "Ġlitt": 6832,
      "Ġforks": 6833,
      "Ġoatmeal": 6834,
      "Ġmushrooms": 6835,
      "Ġminerals": 6836,
      "Ġincluding": 6837,
      "Ġinstrum": 6838,
      "Ġrustling": 6839,
      "ĠFrog": 6840,
      "ĠFox": 6841,
      "Ġwidened": 6842,
      "ĠSusan": 6843,
      "Ġunsure": 6844,
      "?'": 6845,
      "Ġdaring": 6846,
      "Ġplucked": 6847,
      "Ġgrabbing": 6848,
      "Ġlearns": 6849,
      "Ġracc": 6850,
      "Ġprinting": 6851,
      "Ġsnowfl": 6852,
      "ĠAlong": 6853,
      "ĠZoomy": 6854,
      "Ġwraps": 6855,
      "Ġdesigns": 6856,
      "Ġrefle": 6857,
      "Ġlungs": 6858,
      "Ġbeginning": 6859,
      "Ġhorizon": 6860,
      "Ġraccoon": 6861,
      "Bl": 6862,
      "Ew": 6863,
      "uzzy": 6864,
      "yond": 6865,
      "Ġbeyond": 6866,
      "Ġropes": 6867,
      "Ġnoses": 6868,
      "Ġbacked": 6869,
      "Ġswords": 6870,
      "ĠPandy": 6871,
      "Ġstrongest": 6872,
      "Ġrainy": 6873,
      "Ġdeal": 6874,
      "Ġsandpit": 6875,
      "Ġtables": 6876,
      "retty": 6877,
      "Ġrivers": 6878,
      "Ġforgetting": 6879,
      "Ġspoonful": 6880,
      "Ġwrapping": 6881,
      "Ġpaths": 6882,
      "Ġperformance": 6883,
      "Ġwishing": 6884,
      "Ġavoid": 6885,
      "ronaut": 6886,
      "Ġscrews": 6887,
      "Ġsprinkled": 6888,
      "Ġtalented": 6889,
      "ĠFroggy": 6890,
      "Ġastronaut": 6891,
      "Ġcousin": 6892,
      "Harry": 6893,
      "Run": 6894,
      "Whee": 6895,
      "Ġtouc": 6896,
      "Ġdarling": 6897,
      "ĠSpl": 6898,
      "cky": 6899,
      "Ġrings": 6900,
      "Ġneither": 6901,
      "ĠMo": 6902,
      "Ġexcept": 6903,
      "Ġfeast": 6904,
      "Ġvines": 6905,
      "iley": 6906,
      "ÅĵWow": 6907,
      "ÅĵDo": 6908,
      "ÅĵCome": 6909,
      "Ġteased": 6910,
      "athan": 6911,
      "Ġsteer": 6912,
      "Ġcelebrating": 6913,
      "Ġdetermination": 6914,
      "Ġwipes": 6915,
      "Ġsymbols": 6916,
      "Charlie": 6917,
      "Ġseashells": 6918,
      "Ru": 6919,
      "Sandy": 6920,
      "zes": 6921,
      "Ġlower": 6922,
      "ĠSorry": 6923,
      "choo": 6924,
      "ĠWendy": 6925,
      "Ġcond": 6926,
      "Ġage": 6927,
      "Ġdads": 6928,
      "Ġcloses": 6929,
      "Ġcuriously": 6930,
      "Ġafterwards": 6931,
      "ĠKaren": 6932,
      "Ġzookeeper": 6933,
      "Ġrecipe": 6934,
      "Ġvanilla": 6935,
      "Ġhealth": 6936,
      "Ġburst": 6937,
      "manda": 6938,
      "Ġseparated": 6939,
      "Ġwiggle": 6940,
      "Ġaudience": 6941,
      "Boo": 6942,
      "Time": 6943,
      "the": 6944,
      "Ġwins": 6945,
      "Ġstool": 6946,
      "ĠLaura": 6947,
      "ĠLizzie": 6948,
      "Ġbeam": 6949,
      "ĠUnder": 6950,
      "Ġwilling": 6951,
      "Ġadults": 6952,
      "Ġcloudy": 6953,
      "Ġsilent": 6954,
      "Ġedges": 6955,
      "Ġpigeons": 6956,
      "Ġcushions": 6957,
      "Ġneatly": 6958,
      "Ġnovels": 6959,
      "Ġfirefighter": 6960,
      "Maria": 6961,
      "Ġheavier": 6962,
      "Ġaccomplish": 6963,
      "Ġpassengers": 6964,
      "ility": 6965,
      "Ġhissed": 6966,
      "ĠMabel": 6967,
      "Ġbodies": 6968,
      "Ġjugg": 6969,
      "Ġfact": 6970,
      "ĠEnjoy": 6971,
      "using": 6972,
      "Ġdollar": 6973,
      "Ġhearing": 6974,
      "Ġraces": 6975,
      "Ġgasp": 6976,
      "Ġtriangles": 6977,
      "Ġcomplaining": 6978,
      "Ġcobwebs": 6979,
      "Shh": 6980,
      "ĠBirdy": 6981,
      "Ġmaterials": 6982,
      "immering": 6983,
      "ĠFarmer": 6984,
      "rigued": 6985,
      "Katie": 6986,
      "bell": 6987,
      "dri": 6988,
      "Ġcrew": 6989,
      "ido": 6990,
      "ĠBo": 6991,
      "ĠDe": 6992,
      "Ġbully": 6993,
      "Ġadult": 6994,
      "Ġdef": 6995,
      "Ġblocking": 6996,
      "Ġtricked": 6997,
      "Ġvisitor": 6998,
      "Ġrespond": 6999,
      "ĠStay": 7000,
      "Ġtested": 7001,
      "Ġfeeding": 7002,
      "Ġtricky": 7003,
      "Ġsurroundings": 7004,
      "Ġtravelling": 7005,
      "ĠGranny": 7006,
      "Br": 7007,
      "Ducky": 7008,
      "Fo": 7009,
      "py": 7010,
      "Ġhour": 7011,
      "Ġdie": 7012,
      "ĠSun": 7013,
      "Ġthorn": 7014,
      "ĠBaa": 7015,
      "ĠEl": 7016,
      "ĠPaula": 7017,
      "Ġstays": 7018,
      "Ġamount": 7019,
      "Ġtalks": 7020,
      "Ġattack": 7021,
      "Ġlifting": 7022,
      "Ġshrinking": 7023,
      "Ġresisted": 7024,
      "Ġstacked": 7025,
      "Ġpupils": 7026,
      "ĠGoodbye": 7027,
      "Ġtimer": 7028,
      "Ġtouches": 7029,
      "Great": 7030,
      "May": 7031,
      "cher": 7032,
      "cie": 7033,
      "Ġ2": 7034,
      "Ġaimed": 7035,
      "Ġcor": 7036,
      "Ġnood": 7037,
      "ĠSw": 7038,
      "cess": 7039,
      "ĠBinky": 7040,
      "ĠUntil": 7041,
      "Ġgobbled": 7042,
      "ĠWin": 7043,
      "Ġhelpers": 7044,
      "Ġblond": 7045,
      "iona": 7046,
      "Ġnearly": 7047,
      "ĠNobody": 7048,
      "Ġdances": 7049,
      "Ġkicks": 7050,
      "ĠStan": 7051,
      "Ġcrossing": 7052,
      "artha": 7053,
      "ivity": 7054,
      "Ġscratches": 7055,
      "Ġoysters": 7056,
      "Ġinsisting": 7057,
      "Ġsports": 7058,
      "Ġgranted": 7059,
      "Ġcenter": 7060,
      "Ġmesmerized": 7061,
      "Ġpouted": 7062,
      "Ġoccas": 7063,
      "Bad": 7064,
      "Pe": 7065,
      "Ġcoral": 7066,
      "inger": 7067,
      "imon": 7068,
      "ĠHolly": 7069,
      "Ġyo": 7070,
      "Ġelf": 7071,
      "Ġstumble": 7072,
      "step": 7073,
      "Ġneare": 7074,
      "ĠMouse": 7075,
      "Ġslam": 7076,
      "ÅĵMom": 7077,
      "ÅĵMy": 7078,
      "Ġglued": 7079,
      "Ġconvers": 7080,
      "oys": 7081,
      "Ġsquishy": 7082,
      "ences": 7083,
      "Ġimages": 7084,
      "Ġhonked": 7085,
      "Ġtwisty": 7086,
      "Ġgrandson": 7087,
      "Ġknocks": 7088,
      "ĠPepper": 7089,
      "Ġseconds": 7090,
      "Ġflavors": 7091,
      "ĠKeep": 7092,
      "Ġarranged": 7093,
      "fall": 7094,
      "Ġhea": 7095,
      "Ġgross": 7096,
      "Ġni": 7097,
      "lyn": 7098,
      "ĠWally": 7099,
      "icky": 7100,
      "ĠEx": 7101,
      "Ġflown": 7102,
      "anging": 7103,
      "Ġtrot": 7104,
      "Ġwobbly": 7105,
      "Ġzipping": 7106,
      "Ġbeloved": 7107,
      "Ġcolder": 7108,
      "ĠKelly": 7109,
      "Ġplans": 7110,
      "Ġimagining": 7111,
      "ĠStitch": 7112,
      "Ġindeed": 7113,
      "Ġconcert": 7114,
      "Ġdirections": 7115,
      "Ġnoodles": 7116,
      "Rob": 7117,
      "Some": 7118,
      "fire": 7119,
      "oey": 7120,
      "yes": 7121,
      "Ġmer": 7122,
      "Ġpon": 7123,
      "llen": 7124,
      "sequ": 7125,
      "Ġloc": 7126,
      "Ġscen": 7127,
      "Ġgoodies": 7128,
      "Ġpresses": 7129,
      "Ġprett": 7130,
      "Ġwobbled": 7131,
      "Ġconsequ": 7132,
      "ĠGemma": 7133,
      "Ġcreativity": 7134,
      "Ġmarshmallow": 7135,
      "Ġprove": 7136,
      "Ġantic": 7137,
      "Ġsunflowers": 7138,
      "Ġawo": 7139,
      "Ġstreamers": 7140,
      "Ġpreparing": 7141,
      "Ġwiggly": 7142,
      "ably": 7143,
      "Ġgreeted": 7144,
      "ĠLouise": 7145,
      "Ġechoed": 7146,
      "ĠCrabby": 7147,
      "Ġbehavior": 7148,
      "Ġspices": 7149,
      "Ġgeese": 7150,
      "Ruby": 7151,
      "Tw": 7152,
      "aired": 7153,
      "now": 7154,
      "ĠQ": 7155,
      "Ġcoup": 7156,
      "Ġnine": 7157,
      "Ġtha": 7158,
      "str": 7159,
      "unched": 7160,
      "Ġnotes": 7161,
      "Ġpeck": 7162,
      "Ġexplorer": 7163,
      "ĠRalph": 7164,
      "issa": 7165,
      "Ġgenie": 7166,
      "Ġpaintbrush": 7167,
      "Ġgrowls": 7168,
      "Ġpeacefully": 7169,
      "Ġdriveway": 7170,
      "Ġpicnics": 7171,
      "Ġfears": 7172,
      "Ġseller": 7173,
      "Ġheroes": 7174,
      "Ġrepaired": 7175,
      "Ġscraped": 7176,
      "ĠMickey": 7177,
      "ĠFriends": 7178,
      "Ġmarshmallows": 7179,
      "Ġcouple": 7180,
      "Kate": 7181,
      "Milly": 7182,
      "mered": 7183,
      "whe": 7184,
      "Ġtuck": 7185,
      "Ġtumbled": 7186,
      "rey": 7187,
      "Ġreass": 7188,
      "ĠAsh": 7189,
      "Ġroses": 7190,
      "Ġscient": 7191,
      "ueen": 7192,
      "Ġoffic": 7193,
      "Ġtoward": 7194,
      "Ġdefe": 7195,
      "ĠDog": 7196,
      "Ġslower": 7197,
      "Ġsails": 7198,
      "ĠTodd": 7199,
      "Ġforgets": 7200,
      "Ġlaying": 7201,
      "Steve": 7202,
      "Ġwiping": 7203,
      "Ġspeeding": 7204,
      "ĠAbi": 7205,
      "Ġguests": 7206,
      "Ġbehaved": 7207,
      "Ġconsequences": 7208,
      "Ġscientist": 7209,
      "--": 7210,
      "Toby": 7211,
      "cl": 7212,
      "Ġsank": 7213,
      "Ġtoaster": 7214,
      "Ġfant": 7215,
      "Ġmate": 7216,
      "onna": 7217,
      "Ġsale": 7218,
      "Ġease": 7219,
      "Ġstain": 7220,
      "stick": 7221,
      "ĠAna": 7222,
      "ĠWilliam": 7223,
      "ĠFido": 7224,
      "Ġache": 7225,
      "ĠRemember": 7226,
      "ĠAlthough": 7227,
      "Ġpours": 7228,
      "Ġexamining": 7229,
      "ĠBecky": 7230,
      "Ġpraying": 7231,
      "Ġtwisting": 7232,
      "Ġincreased": 7233,
      "Ġtrembled": 7234,
      "ĠMaddy": 7235,
      "Ġcommun": 7236,
      "Blue": 7237,
      "Even": 7238,
      "bird": 7239,
      "ga": 7240,
      "hi": 7241,
      "Ġtying": 7242,
      "ition": 7243,
      "aying": 7244,
      "Ġgonna": 7245,
      "anes": 7246,
      "Ġsofter": 7247,
      "Ġplayroom": 7248,
      "Ġplaytime": 7249,
      "Ġshirts": 7250,
      "child": 7251,
      "Ġcharge": 7252,
      "Ġblast": 7253,
      "Ġintrigued": 7254,
      "Ġslither": 7255,
      "Ġexplo": 7256,
      "Ġteles": 7257,
      "ĠPu": 7258,
      "Ġwrink": 7259,
      "ĠRain": 7260,
      "Ġleast": 7261,
      "athy": 7262,
      "Ġruining": 7263,
      "Ġdropping": 7264,
      "Ġjoyful": 7265,
      "Ġbaskets": 7266,
      "Ġbeeh": 7267,
      "ĠOur": 7268,
      "ĠAlison": 7269,
      "Ġdived": 7270,
      "Ġmatters": 7271,
      "ertain": 7272,
      "ĠZip": 7273,
      "Ġdiamonds": 7274,
      "Ġgrandchild": 7275,
      "Ġfilms": 7276,
      "weed": 7277,
      "Ġmagazines": 7278,
      "ĠRoger": 7279,
      "Ġtwinkled": 7280,
      "ĠBirthday": 7281,
      "Ġgrandparents": 7282,
      "Ġsnowflakes": 7283,
      "Ġponies": 7284,
      "Ġprettier": 7285,
      "Ġanticip": 7286,
      "Ġawoke": 7287,
      "Ġfantastic": 7288,
      "Ġtelescope": 7289,
      "Woof": 7290,
      "ael": 7291,
      "Ġnibb": 7292,
      "Ġoh": 7293,
      "esp": 7294,
      "ĠListen": 7295,
      "rip": 7296,
      "ĠBri": 7297,
      "Ġkings": 7298,
      "Ġbru": 7299,
      "ĠMomma": 7300,
      "Ġtwice": 7301,
      "Ġforests": 7302,
      "Ġremembering": 7303,
      "acy": 7304,
      "Ġlighter": 7305,
      "ichael": 7306,
      "Ġjud": 7307,
      "Ġpennies": 7308,
      "Ġchopped": 7309,
      "Ġseaweed": 7310,
      "Ġshops": 7311,
      "ounce": 7312,
      "Ġbattle": 7313,
      "Ġspreading": 7314,
      "Ġnervously": 7315,
      "ĠDavey": 7316,
      "Ġpepperoni": 7317,
      "Ġcampfire": 7318,
      "Ġreversed": 7319,
      "Ġscrewdri": 7320,
      "Ġchoices": 7321,
      "Ġwarnings": 7322,
      "Ġdamage": 7323,
      "Ġdeserve": 7324,
      "Ġstitches": 7325,
      "Ġaccomplishment": 7326,
      "Follow": 7327,
      "ĠQueen": 7328,
      "Ġscrewdriver": 7329,
      "Kim": 7330,
      "Mine": 7331,
      "cter": 7332,
      "form": 7333,
      "Ġver": 7334,
      "ouch": 7335,
      "Ġdet": 7336,
      "irrel": 7337,
      "Ġund": 7338,
      "ambled": 7339,
      "Ġbeating": 7340,
      "Ġonward": 7341,
      "adie": 7342,
      "ĠMart": 7343,
      "Ġreason": 7344,
      "Ġknit": 7345,
      "Ġcoc": 7346,
      "Ġchara": 7347,
      "quirrel": 7348,
      "Ġtreehouse": 7349,
      "Ġposs": 7350,
      "Ġposter": 7351,
      "Ġcrashing": 7352,
      "Ġbows": 7353,
      "Ġcausing": 7354,
      "Ġnests": 7355,
      "Ġaction": 7356,
      "Ġhopeful": 7357,
      "Ġnecklaces": 7358,
      "Ġenthusi": 7359,
      "Ġzebras": 7360,
      "Ġquarreling": 7361,
      "ĠMaya": 7362,
      "Ġrefreshing": 7363,
      "Ġsewed": 7364,
      "Ġ10": 7365,
      "Ġbehaving": 7366,
      "Ġrobber": 7367,
      "Ġwaddled": 7368,
      "Have": 7369,
      "Yummy": 7370,
      "mates": 7371,
      "upt": 7372,
      "Ġais": 7373,
      "Ġdot": 7374,
      "Ġhen": 7375,
      "ĠSmo": 7376,
      "Ġsadd": 7377,
      "ori": 7378,
      "order": 7379,
      "ĠHallow": 7380,
      "Ġdod": 7381,
      "ĠMartha": 7382,
      "Ġspook": 7383,
      "Ġspins": 7384,
      "Ġcosy": 7385,
      "bert": 7386,
      "Ġthrown": 7387,
      "Ġfins": 7388,
      "Ġfinishing": 7389,
      "Ġunw": 7390,
      "Ġwrigg": 7391,
      "Ġdressing": 7392,
      "Ġthroughout": 7393,
      "Ġsteady": 7394,
      "Ġfoxes": 7395,
      "Ġshaped": 7396,
      "Ġtowns": 7397,
      "ĠZoey": 7398,
      "Ġscrambled": 7399,
      "Ġborrowed": 7400,
      "Ġhealing": 7401,
      "Ġloading": 7402,
      "ÅĵYouÃ¢": 7403,
      "Ġsuffered": 7404,
      "Ġyielded": 7405,
      "Tweetie": 7406,
      "Ġproper": 7407,
      "ĠTessa": 7408,
      "Ġcottage": 7409,
      "Ġconnected": 7410,
      "Ġbeehive": 7411,
      "Ġcharacter": 7412,
      "Ġenthusiasm": 7413,
      "ĠHalloween": 7414,
      "Ġspooky": 7415,
      "yan": 7416,
      "Ġties": 7417,
      "Ġnapping": 7418,
      "veral": 7419,
      "Ġsta": 7420,
      "Ġstung": 7421,
      "Ġbea": 7422,
      "Ġseveral": 7423,
      "ĠAmanda": 7424,
      "ĠJax": 7425,
      "ĠWell": 7426,
      "Ġscored": 7427,
      "nap": 7428,
      "ĠFiona": 7429,
      "Ġsled": 7430,
      "Ġbraver": 7431,
      "Ġwarmly": 7432,
      "Ġcraft": 7433,
      "Ġexpress": 7434,
      "Ġlifts": 7435,
      "Ġbells": 7436,
      "Ġdecorating": 7437,
      "Ġangels": 7438,
      "Ġsoapy": 7439,
      "Ġdesigned": 7440,
      "Ġsurfboard": 7441,
      "Ġpedaled": 7442,
      "Ġloops": 7443,
      "Ġstudents": 7444,
      "Ġdiscussing": 7445,
      "Ġanticipation": 7446,
      "Out": 7447,
      "crow": 7448,
      "oss": 7449,
      "Ġwou": 7450,
      "inite": 7451,
      "ĠSal": 7452,
      "ĠSuper": 7453,
      "Ġrout": 7454,
      "Ġrays": 7455,
      "rier": 7456,
      "Ġwante": 7457,
      "allowed": 7458,
      "Ġscamp": 7459,
      "Ġcoach": 7460,
      "Ġswallowed": 7461,
      "ĠFuzzy": 7462,
      "Ġpecked": 7463,
      "Ġfond": 7464,
      "ÅĵWell": 7465,
      "Ġperforming": 7466,
      "Ġpostman": 7467,
      "Ġcuddly": 7468,
      "Ġsniffs": 7469,
      "Ġstatues": 7470,
      "Ġrewarded": 7471,
      "ĠDaniel": 7472,
      "rrr": 7473,
      "Ġswayed": 7474,
      "Ġfocused": 7475,
      "Ġcupcakes": 7476,
      "ĠSqueaky": 7477,
      "Ġreflection": 7478,
      "Ġofficers": 7479,
      "?!\"": 7480,
      "By": 7481,
      "eel": 7482,
      "Ġsy": 7483,
      "its": 7484,
      "Ġlent": 7485,
      "Ġpins": 7486,
      "Ġshady": 7487,
      "Ġmemb": 7488,
      "Ġmanag": 7489,
      "Ġchilly": 7490,
      "Ġgardener": 7491,
      "Ġpuff": 7492,
      "Ġstopping": 7493,
      "Ġacting": 7494,
      "ĠRavi": 7495,
      "ĠNora": 7496,
      "ĠNana": 7497,
      "Ġduckling": 7498,
      "Ġcounts": 7499,
      "asty": 7500,
      "Ġvegg": 7501,
      "ĠwonÃ¢": 7502,
      "Ġstands": 7503,
      "Ġsuits": 7504,
      "Ġfirefly": 7505,
      "Ġlicking": 7506,
      "Ġmeowing": 7507,
      "ĠSparky": 7508,
      "Ġfreedom": 7509,
      "ĠElsa": 7510,
      "Ġevil": 7511,
      "initely": 7512,
      "Ġmembers": 7513,
      "Jerry": 7514,
      "Like": 7515,
      "Pat": 7516,
      "Penny": 7517,
      "rink": 7518,
      "while": 7519,
      "Ġfaded": 7520,
      "Ġgap": 7521,
      "Ġnasty": 7522,
      "ĠSquirrel": 7523,
      "Ġstall": 7524,
      "ĠBee": 7525,
      "Ġshoo": 7526,
      "rying": 7527,
      "aret": 7528,
      "Ġnodd": 7529,
      "Ġflips": 7530,
      "ĠCle": 7531,
      "Ġchos": 7532,
      "Ġbravest": 7533,
      "Ġbeautifully": 7534,
      "ÅĵNow": 7535,
      "Whenever": 7536,
      "ĠPa": 7537,
      "Ġbelts": 7538,
      "Ġfits": 7539,
      "ĠAlbert": 7540,
      "Ġcalmly": 7541,
      "Ġroars": 7542,
      "Ġpolitely": 7543,
      "ĠFreddie": 7544,
      "Ġswans": 7545,
      "Ġsurfing": 7546,
      "ĠJanie": 7547,
      "ĠMaddie": 7548,
      "Abigail": 7549,
      "Brown": 7550,
      "Ġveggies": 7551,
      "Ġchosen": 7552,
      "Bet": 7553,
      "Danny": 7554,
      "Jul": 7555,
      "Mad": 7556,
      "Our": 7557,
      "Oops": 7558,
      "Su": 7559,
      "Tr": 7560,
      "Ġtar": 7561,
      "Ġnur": 7562,
      "Ġinj": 7563,
      "ĠLion": 7564,
      "ĠBra": 7565,
      "ĠMag": 7566,
      "elie": 7567,
      "Ġsped": 7568,
      "Ġchanging": 7569,
      "ĠDoug": 7570,
      "Ġhanding": 7571,
      "Ġfinal": 7572,
      "Ġwarmer": 7573,
      "Ġresults": 7574,
      "Ġstreets": 7575,
      "Ġbreathed": 7576,
      "Ġrobots": 7577,
      "ĠZero": 7578,
      "Ġcrowns": 7579,
      "Ġsneezing": 7580,
      "Ġlasers": 7581,
      "ĠPatty": 7582,
      "Ġuniforms": 7583,
      "ĠJulia": 7584,
      "Ġcubes": 7585,
      "Ġsuffering": 7586,
      "ĠQuack": 7587,
      "Ġsuggestion": 7588,
      "Ġdefinitely": 7589,
      "espite": 7590,
      "Ġscampered": 7591,
      "Baby": 7592,
      "Tilly": 7593,
      "Tina": 7594,
      "iki": 7595,
      "per": 7596,
      "ĠX": 7597,
      "itude": 7598,
      "Ġcertain": 7599,
      "Ġheight": 7600,
      "onse": 7601,
      "atul": 7602,
      "iment": 7603,
      "ooking": 7604,
      "ĠMichael": 7605,
      "Ġtapped": 7606,
      "usty": 7607,
      "Ġtweet": 7608,
      "Ġslips": 7609,
      "ilda": 7610,
      "Ġrains": 7611,
      "Ġheading": 7612,
      "Ġbiting": 7613,
      "ĠThose": 7614,
      "Ġsweetest": 7615,
      "Ġfills": 7616,
      "uggy": 7617,
      "Ġjars": 7618,
      "Ġpuzzled": 7619,
      "Ġresponse": 7620,
      "ĠThanks": 7621,
      "Ġperformed": 7622,
      "ivia": 7623,
      "ĠFinn": 7624,
      "Ġtires": 7625,
      "Ġexercises": 7626,
      "amboo": 7627,
      "Ġwhispering": 7628,
      "Ġbrushing": 7629,
      "ĠKevin": 7630,
      "Ġfirmly": 7631,
      "Ġencouraging": 7632,
      "Ġannoyed": 7633,
      "ĠSplash": 7634,
      "Ġmerma": 7635,
      "Back": 7636,
      "Listen": 7637,
      "bably": 7638,
      "Ġaim": 7639,
      "Ġwakes": 7640,
      "Ġdep": 7641,
      "ĠTuna": 7642,
      "anwhile": 7643,
      "ĠLa": 7644,
      "ĠIm": 7645,
      "Ġmommies": 7646,
      "storm": 7647,
      "Ġshown": 7648,
      "Ġaside": 7649,
      "Ġsmashed": 7650,
      "ĠEric": 7651,
      "ĠFuzz": 7652,
      "Ġwaterfall": 7653,
      "ears": 7654,
      "Ġwinding": 7655,
      "Ġdoorway": 7656,
      "Ġconvin": 7657,
      "Ġfires": 7658,
      "Ġjoining": 7659,
      "Ġprobably": 7660,
      "Ġpackages": 7661,
      "Ġrecorder": 7662,
      "Ġignoring": 7663,
      "ĠStar": 7664,
      "Ġpleaded": 7665,
      "Ġcovering": 7666,
      "Ġthud": 7667,
      "Ġscooters": 7668,
      "Ġsniffing": 7669,
      "Ġrotten": 7670,
      "Ġsurrendered": 7671,
      "Chloe": 7672,
      "Ġmaterial": 7673,
      "ĠQuick": 7674,
      "Ġrefuse": 7675,
      "Ġdollars": 7676,
      "Ġtrotted": 7677,
      "Brownie": 7678,
      "Lilly": 7679,
      "Rachel": 7680,
      "fia": 7681,
      "rup": 7682,
      "Ġwoof": 7683,
      "Ġtoss": 7684,
      "Ġpound": 7685,
      "isdom": 7686,
      "ilted": 7687,
      "ĠSk": 7688,
      "ĠHope": 7689,
      "Ġramp": 7690,
      "Ġweeds": 7691,
      "Ġshin": 7692,
      "chy": 7693,
      "Ġswit": 7694,
      "ĠFire": 7695,
      "Ġquilt": 7696,
      "ÅĵOkay": 7697,
      "ÅĵWhere": 7698,
      "ĠGinger": 7699,
      "Ġmints": 7700,
      "Ġbelongings": 7701,
      "Ġimaginary": 7702,
      "Ġleads": 7703,
      "Ġmagnif": 7704,
      "Ġfrowning": 7705,
      "Ġpandas": 7706,
      "Ġtubes": 7707,
      "Ġlending": 7708,
      "Ġvehicles": 7709,
      "Ġappreciated": 7710,
      "Ġgears": 7711,
      "Ġincreasing": 7712,
      "Ġpunishment": 7713,
      "ĠFrankie": 7714,
      "Ġwider": 7715,
      "anne": 7716,
      "Ġoccasion": 7717,
      "Bill": 7718,
      "Dan": 7719,
      "Each": 7720,
      "Miss": 7721,
      "Sadly": 7722,
      "bro": 7723,
      "bage": 7724,
      "munk": 7725,
      "ratul": 7726,
      "Ġbas": 7727,
      "Ġdangers": 7728,
      "ĠTy": 7729,
      "ĠSimon": 7730,
      "ading": 7731,
      "Ġforts": 7732,
      "ĠUp": 7733,
      "ongratul": 7734,
      "gets": 7735,
      "Ġtwenty": 7736,
      "Ġskunk": 7737,
      "Ġexplor": 7738,
      "Ġsmallest": 7739,
      "Ġwatering": 7740,
      "ÅĵOf": 7741,
      "LetÃ¢": 7742,
      "Ġcleaner": 7743,
      "Ġnights": 7744,
      "acles": 7745,
      "Ġswimmer": 7746,
      "Ġcompete": 7747,
      "ounced": 7748,
      "Ġmailed": 7749,
      "ĠAli": 7750,
      "Ġtidying": 7751,
      "Ġgarbage": 7752,
      "Ġwhispers": 7753,
      "Ġaddress": 7754,
      "Ġdiscoveries": 7755,
      "ĠSnowman": 7756,
      "Ġpassports": 7757,
      "ĠMeg": 7758,
      "Ġdesper": 7759,
      "citedly": 7760,
      "Ġthorns": 7761,
      "Ġslammed": 7762,
      "Ġwrinkled": 7763,
      "eeling": 7764,
      "Ġsyrup": 7765,
      "Car": 7766,
      "Jamie": 7767,
      "Karen": 7768,
      "Surpr": 7769,
      "Very": 7770,
      "belt": 7771,
      "piece": 7772,
      "hew": 7773,
      "Ġbamboo": 7774,
      "Ġmoo": 7775,
      "arrow": 7776,
      "ening": 7777,
      "ĠSleep": 7778,
      "lets": 7779,
      "ighing": 7780,
      "Ġearn": 7781,
      "Ġrather": 7782,
      "Ġsheets": 7783,
      "Ġsoaking": 7784,
      "ĠthatÃ¢": 7785,
      "Ġreapp": 7786,
      "ĠAny": 7787,
      "ĠCurious": 7788,
      "ĠDr": 7789,
      "inkle": 7790,
      "Ġovercome": 7791,
      "ÅĵHey": 7792,
      "ection": 7793,
      "ĠGold": 7794,
      "Ġbrightest": 7795,
      "Ġfishy": 7796,
      "Ġdisob": 7797,
      "Ġsmelling": 7798,
      "Ġkittens": 7799,
      "Ġrespected": 7800,
      "Ġprayers": 7801,
      "Ġsweep": 7802,
      "Ġfloats": 7803,
      "Quick": 7804,
      "Ġdespite": 7805,
      "Ġblonde": 7806,
      "Ġconversation": 7807,
      "Am": 7808,
      "Adam": 7809,
      "Beth": 7810,
      "Co": 7811,
      "Ros": 7812,
      "father": 7813,
      "oc": 7814,
      "pen": 7815,
      "water": 7816,
      "Ġtiss": 7817,
      "Ġtipped": 7818,
      "Ġhoo": 7819,
      "Ġcoug": 7820,
      "ĠSa": 7821,
      "Ġsav": 7822,
      "Ġrumbling": 7823,
      "ĠLia": 7824,
      "ĠLove": 7825,
      "Ġwithin": 7826,
      "ĠIzzy": 7827,
      "Ġanger": 7828,
      "urtle": 7829,
      "ĠCro": 7830,
      "Ġblinking": 7831,
      "Ġthoughts": 7832,
      "Ġuntie": 7833,
      "Ġcleared": 7834,
      "Ġsurprising": 7835,
      "ĠRyan": 7836,
      "Ġbits": 7837,
      "Ġblocked": 7838,
      "Ġmonths": 7839,
      "Ġfloors": 7840,
      "Ġcompared": 7841,
      "Ġunderstands": 7842,
      "Ġgrows": 7843,
      "Ġplanting": 7844,
      "Ġcafe": 7845,
      "Ġdesigning": 7846,
      "Ġactive": 7847,
      "Ġshrunk": 7848,
      "Ġseatbelt": 7849,
      "Ġtoolbox": 7850,
      "Ġclearly": 7851,
      "ĠBea": 7852,
      "Ġfishes": 7853,
      "Ġsweaty": 7854,
      "Ġwindowsill": 7855,
      "Ġsending": 7856,
      "Ġshorts": 7857,
      "Ġlipstick": 7858,
      "uctor": 7859,
      "Ġstroke": 7860,
      "Ġappreciation": 7861,
      "Ġdelayed": 7862,
      "Anne": 7863,
      "ĠOlivia": 7864,
      "Ġglittering": 7865,
      "Ġspills": 7866,
      "Ġoutfits": 7867,
      "Ġleapt": 7868,
      "ĠMonkey": 7869,
      "Ġforgiveness": 7870,
      "Ġmunching": 7871,
      "Ġmermaid": 7872,
      "Bu": 7873,
      "Bunny": 7874,
      "hind": 7875,
      "vas": 7876,
      "vroom": 7877,
      "Ġtor": 7878,
      "Ġtoget": 7879,
      "Ġbanged": 7880,
      "erk": 7881,
      "Ġgest": 7882,
      "Ġgroom": 7883,
      "immered": 7884,
      "amma": 7885,
      "ĠLots": 7886,
      "ĠBuggy": 7887,
      "Ġform": 7888,
      "ĠMaisy": 7889,
      "Ġaske": 7890,
      "Ġseals": 7891,
      "ighting": 7892,
      "lph": 7893,
      "Ġflick": 7894,
      "Ġflipped": 7895,
      "Ġstored": 7896,
      "Ġposit": 7897,
      "Ġsnort": 7898,
      "ÅĵThe": 7899,
      "ipes": 7900,
      "ĠRock": 7901,
      "Ġbuses": 7902,
      "Ġbusiness": 7903,
      "boards": 7904,
      "Ġworrying": 7905,
      "Ġelbow": 7906,
      "Ġteachers": 7907,
      "ails": 7908,
      "Ġtidied": 7909,
      "Ġchocolates": 7910,
      "ĠBruce": 7911,
      "Ġextraord": 7912,
      "Ġsweat": 7913,
      "Ġburger": 7914,
      "Ġcomputers": 7915,
      "Ġhooks": 7916,
      "Ġdisplayed": 7917,
      "Ġpermitted": 7918,
      "ĠVroom": 7919,
      "Ġconfl": 7920,
      "Ġobeyed": 7921,
      "Ġpuppet": 7922,
      "Ġefforts": 7923,
      "intment": 7924,
      "Ġsternly": 7925,
      "Ġtype": 7926,
      "Ġrisks": 7927,
      "Ġconductor": 7928,
      "Ġresponded": 7929,
      "ĠPuppy": 7930,
      "Ġconvinced": 7931,
      "broken": 7932,
      "Bang": 7933,
      "but": 7934,
      "eal": 7935,
      "what": 7936,
      "Ġsou": 7937,
      "Ġwig": 7938,
      "Ġtheat": 7939,
      "ouched": 7940,
      "Ġmood": 7941,
      "ĠTerry": 7942,
      "Ġnatur": 7943,
      "ĠSl": 7944,
      "Ġhap": 7945,
      "rick": 7946,
      "Ġsoot": 7947,
      "Ġweal": 7948,
      "antha": 7949,
      "ĠMoo": 7950,
      "Ġfrie": 7951,
      "fus": 7952,
      "Ġknots": 7953,
      "Ġcanvas": 7954,
      "Ġscri": 7955,
      "Ġscent": 7956,
      "Ġlapt": 7957,
      "Ġswo": 7958,
      "Ġtrans": 7959,
      "Ġcheers": 7960,
      "Ġdonkey": 7961,
      "ĠGre": 7962,
      "Ġpapa": 7963,
      "ĠDove": 7964,
      "Ġsnowy": 7965,
      "Ġjobs": 7966,
      "Everyday": 7967,
      "Ġpops": 7968,
      "Ġbreathing": 7969,
      "Ġpanicked": 7970,
      "Ġscrub": 7971,
      "Ġprick": 7972,
      "Ġtravels": 7973,
      "Ġbatteries": 7974,
      "attered": 7975,
      "Ġstomp": 7976,
      "Ġtraveling": 7977,
      "Ġluckily": 7978,
      "Ġburying": 7979,
      "ĠLibby": 7980,
      "Ġdamaged": 7981,
      "Clara": 7982,
      "Ġflashing": 7983,
      "Ġastronauts": 7984,
      "Ġheaven": 7985,
      "Ġmatey": 7986,
      "Ġextraordinary": 7987,
      "Buzz": 7988,
      "Ke": 7989,
      "found": 7990,
      "gain": 7991,
      "sie": 7992,
      "worm": 7993,
      "ĠTake": 7994,
      "Ġgall": 7995,
      "ats": 7996,
      "Ġplayd": 7997,
      "Ġlov": 7998,
      "Ġank": 7999,
      "Ġreun": 8000,
      "ĠgirlÃ¢": 8001,
      "artled": 8002,
      "icate": 8003,
      "romise": 8004,
      "Ġclerk": 8005,
      "ĠFel": 8006,
      "Ġwaters": 8007,
      "Ġstrum": 8008,
      "obe": 8009,
      "ÅĵBut": 8010,
      "Ġglobe": 8011,
      "ĠPup": 8012,
      "Ġdisc": 8013,
      "Ġcracks": 8014,
      "Ġmovements": 8015,
      "Ġmarve": 8016,
      "Ġsparks": 8017,
      "ugging": 8018,
      "Ġbelieving": 8019,
      "Ġheartbroken": 8020,
      "Ġcourt": 8021,
      "Ġpizzas": 8022,
      "Ġsolving": 8023,
      "Ġsqueaked": 8024,
      "Ġdigs": 8025,
      "Ġteams": 8026,
      "Ġpays": 8027,
      "Ġguessing": 8028,
      "Ġgoats": 8029,
      "Ġunlo": 8030,
      "screen": 8031,
      "Ġgrandfather": 8032,
      "Ġcuddles": 8033,
      "Ġbracelets": 8034,
      "ĠPatches": 8035,
      "Ġmillion": 8036,
      "Ġspells": 8037,
      "Ġshovels": 8038,
      "Ġexperien": 8039,
      "Ġsewing": 8040,
      "ĠOlga": 8041,
      "Ġresponsib": 8042,
      "ĠAnother": 8043,
      "asmine": 8044,
      "ĠHootie": 8045,
      "Ġinspired": 8046,
      "Ġoppos": 8047,
      "Ġinstruments": 8048,
      "steps": 8049,
      "Ġnibble": 8050,
      "Ġlocal": 8051,
      "Two": 8052,
      "Ġreassured": 8053,
      "ossom": 8054,
      "Ġwealth": 8055,
      "Buddy": 8056,
      "Joy": 8057,
      "Watch": 8058,
      "car": 8059,
      "dress": 8060,
      "eedy": 8061,
      "flowers": 8062,
      "ippy": 8063,
      "jack": 8064,
      "wise": 8065,
      "erm": 8066,
      "ĠTin": 8067,
      "anie": 8068,
      "ider": 8069,
      "Ġnuzz": 8070,
      "orter": 8071,
      "oosh": 8072,
      "ugs": 8073,
      "Ġspy": 8074,
      "Ġexch": 8075,
      "ĠWisdom": 8076,
      "Ġmanners": 8077,
      "Ġbride": 8078,
      "Ġchin": 8079,
      "Ġsunscreen": 8080,
      "ÅĵSure": 8081,
      "ĠPet": 8082,
      "Ġconqu": 8083,
      "ĠSpeedy": 8084,
      "Ġcrouched": 8085,
      "Ġhops": 8086,
      "Ġdrown": 8087,
      "Ġhairdress": 8088,
      "Ġtablet": 8089,
      "Ġtreated": 8090,
      "Ġwinking": 8091,
      "Ġsprout": 8092,
      "Ġbandages": 8093,
      "Ġdistract": 8094,
      "Ġtroubles": 8095,
      "Ġfootsteps": 8096,
      "Ġclassmates": 8097,
      "Ġsnapping": 8098,
      "Ġsqueezing": 8099,
      "Ġscarecrow": 8100,
      "Ġzips": 8101,
      "Ġunpacking": 8102,
      "Ġmember": 8103,
      "ĠPeggy": 8104,
      "Ġprevented": 8105,
      "Ġlumberjack": 8106,
      "Ġscurrying": 8107,
      "Ġparticularly": 8108,
      "Ġrobbers": 8109,
      "Ġnatural": 8110,
      "Ġswollen": 8111,
      "Abby": 8112,
      "Curious": 8113,
      "Dear": 8114,
      "Nina": 8115,
      "cent": 8116,
      "ew": 8117,
      "lt": 8118,
      "ps": 8119,
      "rite": 8120,
      "vant": 8121,
      "val": 8122,
      "ware": 8123,
      "Ġill": 8124,
      "Ġbound": 8125,
      "ĠTurtle": 8126,
      "ingle": 8127,
      "Ġgaz": 8128,
      "Ġgerm": 8129,
      "iliar": 8130,
      "idence": 8131,
      "Ġinter": 8132,
      "amiliar": 8133,
      "Ġsteth": 8134,
      "ĠLooking": 8135,
      "elope": 8136,
      "ĠWelcome": 8137,
      "Ġclues": 8138,
      "Ġnewfound": 8139,
      "Ġchanges": 8140,
      "Ġthanking": 8141,
      "Ġhandy": 8142,
      "ĠJoanna": 8143,
      "Ġene": 8144,
      "ÅĵMaybe": 8145,
      "ĠPaw": 8146,
      "Ġtreas": 8147,
      "ĠNell": 8148,
      "Ġleaking": 8149,
      "Ġcrops": 8150,
      "Ġtricycle": 8151,
      "airy": 8152,
      "Ġtasting": 8153,
      "ĠThatÃ¢": 8154,
      "Ġpromises": 8155,
      "ĠJennie": 8156,
      "ĠGracie": 8157,
      "Ġexpecting": 8158,
      "Ġafar": 8159,
      "Ġpreschool": 8160,
      "Ġhummed": 8161,
      "Ġsqueak": 8162,
      "Ġhunting": 8163,
      "Ġbeetles": 8164,
      "Ġhoops": 8165,
      "Ġobserving": 8166,
      "Ġvests": 8167,
      "Ġfreezing": 8168,
      "Ġpurrs": 8169,
      "Ġadmiration": 8170,
      "ĠTwinkle": 8171,
      "Ġpaddling": 8172,
      "Ġchatter": 8173,
      "ĠJean": 8174,
      "Ġmasterpiece": 8175,
      "ĠMelissa": 8176,
      "Ġunfamiliar": 8177,
      "Ġcustomer": 8178,
      "Ġcustomers": 8179,
      "Ġjudges": 8180,
      "Ġtheatre": 8181,
      "Ġlaptop": 8182,
      "Ġexperienced": 8183,
      "Ġopposite": 8184,
      "Ġhairdresser": 8185,
      "Ġstethos": 8186,
      "Pl": 8187,
      "Red": 8188,
      "Take": 8189,
      "bank": 8190,
      "jest": 8191,
      "Ġactor": 8192,
      "Ġsigning": 8193,
      "Ġhike": 8194,
      "ita": 8195,
      "ĠSnap": 8196,
      "Ġye": 8197,
      "Ġdoves": 8198,
      "ument": 8199,
      "Ġalien": 8200,
      "Ġgoodby": 8201,
      "ĠEver": 8202,
      "Ġflip": 8203,
      "ĠDespite": 8204,
      "Ġpose": 8205,
      "ĠFighting": 8206,
      "Ġpeep": 8207,
      "ĠJackie": 8208,
      "ĠSofia": 8209,
      "Ġrac": 8210,
      "ÅĵPlease": 8211,
      "ĠRiley": 8212,
      "Ġsquished": 8213,
      "Ġwoodcut": 8214,
      "Ġdripping": 8215,
      "Ġlessons": 8216,
      "Ġprod": 8217,
      "Ġwisely": 8218,
      "Ġcomforting": 8219,
      "barrow": 8220,
      "Ġtrusting": 8221,
      "Ġbreaths": 8222,
      "Ġqueens": 8223,
      "Ġwheelbarrow": 8224,
      "Ġbounces": 8225,
      "Ġawful": 8226,
      "Ġhamster": 8227,
      "Ġquestioned": 8228,
      "Ġenviron": 8229,
      "Ġbeeped": 8230,
      "Ġrotting": 8231,
      "Ġartwork": 8232,
      "Ġfleas": 8233,
      "Ġstudent": 8234,
      "...\"": 8235,
      "Ġpurr": 8236,
      "Ġbothering": 8237,
      "Ġconfidence": 8238,
      "Ġemerged": 8239,
      "Ġsirens": 8240,
      "Ġseagulls": 8241,
      "Ġerase": 8242,
      "Ġtemptation": 8243,
      "Ġchipmunk": 8244,
      "Ġmaker": 8245,
      "Ġnearest": 8246,
      "Ġcocoon": 8247,
      "Ġroutine": 8248,
      "Ġnurses": 8249,
      "ĠTyler": 8250,
      "Rosie": 8251,
      "Ġtissue": 8252,
      "Ġtransform": 8253,
      "ĠFelix": 8254,
      "Ġenemy": 8255,
      "Ġenvironment": 8256,
      "Boys": 8257,
      "Cindy": 8258,
      "Get": 8259,
      "Hop": 8260,
      "Hannah": 8261,
      "well": 8262,
      "Ġtossed": 8263,
      "ĠTaking": 8264,
      "arles": 8265,
      "ĠSadie": 8266,
      "Ġyel": 8267,
      "Ġroo": 8268,
      "ĠBecause": 8269,
      "Ġshall": 8270,
      "Ġshimmering": 8271,
      "ĠMila": 8272,
      "Ġrea": 8273,
      "ĠDra": 8274,
      "ĠDuck": 8275,
      "bbling": 8276,
      "earl": 8277,
      "Ġbrains": 8278,
      "ÅĵGood": 8279,
      "ÅĵWho": 8280,
      "ĠGabby": 8281,
      "Ġsandy": 8282,
      "Ġfloppy": 8283,
      "Ġmessages": 8284,
      "people": 8285,
      "Ġcollap": 8286,
      "ĠOther": 8287,
      "Ġpresented": 8288,
      "Ġwhistles": 8289,
      "Ġhonking": 8290,
      "Stay": 8291,
      "Ġreminding": 8292,
      "Ġjogger": 8293,
      "Ġfigures": 8294,
      "Ġscares": 8295,
      "Ġpinching": 8296,
      "Ġlanguages": 8297,
      "ĠCarrie": 8298,
      "Ġpeeled": 8299,
      "Ġinchworm": 8300,
      "Ġcowboys": 8301,
      "ĠBirdie": 8302,
      "Frank": 8303,
      "Ġembarrassing": 8304,
      "Ġnibbled": 8305,
      "Ġaisle": 8306,
      "Ġwriggled": 8307,
      "Surprise": 8308,
      "Ġprickly": 8309,
      "Ġankle": 8310,
      "Ġreunited": 8311,
      "Ġstethoscope": 8312,
      "Any": 8313,
      "Claire": 8314,
      "Jessie": 8315,
      "Pretty": 8316,
      "Tony": 8317,
      "even": 8318,
      "lers": 8319,
      "ris": 8320,
      "rough": 8321,
      "sm": 8322,
      "Ġsill": 8323,
      "ints": 8324,
      "Ġwaded": 8325,
      "rect": 8326,
      "Ġlump": 8327,
      "Ġdump": 8328,
      "Ġpi": 8329,
      "isions": 8330,
      "ĠSatur": 8331,
      "ammy": 8332,
      "ige": 8333,
      "Ġrin": 8334,
      "ĠLenny": 8335,
      "Ġlies": 8336,
      "Ġforce": 8337,
      "Ġspies": 8338,
      "Ġwhoever": 8339,
      "ĠwhatÃ¢": 8340,
      "Ġdecl": 8341,
      "âĤ¬,": 8342,
      "ĠCD": 8343,
      "Ġqui": 8344,
      "ortunately": 8345,
      "Ġraising": 8346,
      "sol": 8347,
      "Ġstores": 8348,
      "Ġbushy": 8349,
      "Ġcris": 8350,
      "Ġstepping": 8351,
      "Ġslowed": 8352,
      "Ġvisits": 8353,
      "Ġriverbank": 8354,
      "Ġcoul": 8355,
      "balls": 8356,
      "Ġpatients": 8357,
      "Ġgiggles": 8358,
      "Ġsuppl": 8359,
      "ĠReady": 8360,
      "Ġ''": 8361,
      "Ġtickling": 8362,
      "Ġcamel": 8363,
      "Ġawhile": 8364,
      "Always": 8365,
      "ĠRosa": 8366,
      "Ġdisturbing": 8367,
      "ippers": 8368,
      "Ġactivity": 8369,
      "Ġforgiving": 8370,
      "Ġaccomplished": 8371,
      "ĠElsie": 8372,
      "ĠBobbie": 8373,
      "Ġcorrect": 8374,
      "Ġtownspeople": 8375,
      "Ġexploration": 8376,
      "Ġgazing": 8377,
      "Ġgoodbyes": 8378,
      "ĠSaturday": 8379,
      "Since": 8380,
      "lo": 8381,
      "po": 8382,
      "rupt": 8383,
      "vince": 8384,
      "Ġwer": 8385,
      "Ġhood": 8386,
      "Ġlush": 8387,
      "Ġdip": 8388,
      "onnie": 8389,
      "enelope": 8390,
      "otty": 8391,
      "ĠOnly": 8392,
      "ĠLy": 8393,
      "ĠLuc": 8394,
      "anted": 8395,
      "endant": 8396,
      "ĠMother": 8397,
      "Ġrely": 8398,
      "Ġsmelt": 8399,
      "elle": 8400,
      "Ġspat": 8401,
      "ĠAng": 8402,
      "iciest": 8403,
      "ĠWoo": 8404,
      "Ġlevers": 8405,
      "Ġtapping": 8406,
      "Ġtaped": 8407,
      "Ġfailed": 8408,
      "getic": 8409,
      "ĠEd": 8410,
      "ĠCla": 8411,
      "ĠYouÃ¢": 8412,
      "Ġblown": 8413,
      "ĠDory": 8414,
      "Ġcares": 8415,
      "ortun": 8416,
      "Ġgrumbled": 8417,
      "Ġjoked": 8418,
      "ÅĵSee": 8419,
      "Ġglisten": 8420,
      "ĠPretty": 8421,
      "bee": 8422,
      "Ġconvince": 8423,
      "ĠRight": 8424,
      "Ġsingers": 8425,
      "Ġsquaw": 8426,
      "Ġmesses": 8427,
      "ĠKaty": 8428,
      "Ġtighter": 8429,
      "Ġcompan": 8430,
      "Ġcaw": 8431,
      "Ġwhisk": 8432,
      "ĠOstrich": 8433,
      "Ġstorms": 8434,
      "Ġwildflowers": 8435,
      "ĠChad": 8436,
      "Ġtunes": 8437,
      "Ġmattered": 8438,
      "ÅĵIf": 8439,
      "ĠStella": 8440,
      "Ġpleas": 8441,
      "Ġself": 8442,
      "Ġorders": 8443,
      "Ġgenerosity": 8444,
      "Ġrelaxing": 8445,
      "Ġargument": 8446,
      "Ġlabels": 8447,
      "Ġgrandd": 8448,
      "Ġmischie": 8449,
      "udged": 8450,
      "ĠFinny": 8451,
      "Ġstamped": 8452,
      "Ġcrocodiles": 8453,
      "Ġrepeating": 8454,
      "aitlyn": 8455,
      "Ġapplause": 8456,
      "Choo": 8457,
      "ĠSeeing": 8458,
      "Ġtextures": 8459,
      "ĠJonny": 8460,
      "Ġencouragement": 8461,
      "Ġcupcake": 8462,
      "Ġopportun": 8463,
      "ĠMartin": 8464,
      "Ġnodding": 8465,
      "Maddy": 8466,
      "Ġgesture": 8467,
      "Ġgerms": 8468,
      "Ġwoodcutter": 8469,
      "Ġsupplied": 8470,
      "Ġmischievous": 8471,
      "Aunt": 8472,
      "Honey": 8473,
      "Lucky": 8474,
      "ai": 8475,
      "line": 8476,
      "rily": 8477,
      "Ġ4": 8478,
      "Ġsens": 8479,
      "Ġbis": 8480,
      "itting": 8481,
      "Ġcops": 8482,
      "Ġpouch": 8483,
      "inging": 8484,
      "ingly": 8485,
      "ani": 8486,
      "anish": 8487,
      "ilities": 8488,
      "Ġnapped": 8489,
      "ĠSummer": 8490,
      "Ġhab": 8491,
      "Ġodd": 8492,
      "Ġthi": 8493,
      "Ġrowed": 8494,
      "Ġformed": 8495,
      "Ġwhales": 8496,
      "ĠMina": 8497,
      "Ġashes": 8498,
      "ĠTimm": 8499,
      "Ġboards": 8500,
      "ĠJason": 8501,
      "icle": 8502,
      "aint": 8503,
      "Ġsomethi": 8504,
      "ddie": 8505,
      "Ġcarries": 8506,
      "agine": 8507,
      "Ġdecisions": 8508,
      "Ġchill": 8509,
      "Ġlace": 8510,
      "Ġswat": 8511,
      "uddles": 8512,
      "Ġslipping": 8513,
      "anda": 8514,
      "Ġclosing": 8515,
      "ĠJoJo": 8516,
      "ĠJosie": 8517,
      "Ġgardens": 8518,
      "Ġhardest": 8519,
      "Ġends": 8520,
      "Ġdoorbell": 8521,
      "Ġmajest": 8522,
      "Ġwrit": 8523,
      "ĠRay": 8524,
      "ĠNice": 8525,
      "acle": 8526,
      "Ġparted": 8527,
      "Ġpetting": 8528,
      "ĠFlo": 8529,
      "ĠFlora": 8530,
      "Ġfootpr": 8531,
      "Ġhumming": 8532,
      "Ġmeadows": 8533,
      "Ġtearing": 8534,
      "Ġsprays": 8535,
      "Ġstretches": 8536,
      "Ġships": 8537,
      "ĠBehind": 8538,
      "undred": 8539,
      "Ġfrowns": 8540,
      "Ġtoothbrush": 8541,
      "Ġrats": 8542,
      "Ġcombed": 8543,
      "rnie": 8544,
      "Ġkayaking": 8545,
      "Ġenergetic": 8546,
      "ĠRuss": 8547,
      "Ġmeatballs": 8548,
      "Ġapplauding": 8549,
      "Ġsnaps": 8550,
      "Ġbothered": 8551,
      "Ġglittered": 8552,
      "Ġspilling": 8553,
      "ĠOutside": 8554,
      "Ġclicked": 8555,
      "Ġswaying": 8556,
      "Ġswirls": 8557,
      "Which": 8558,
      "Ġecho": 8559,
      "Ġfocus": 8560,
      "Ġcotton": 8561,
      "Ġyumm": 8562,
      "ĠSwim": 8563,
      "Ġexploded": 8564,
      "Ġbruises": 8565,
      "Ġunwra": 8566,
      "elieve": 8567,
      "ĠSkip": 8568,
      "Ġtorto": 8569,
      "Ġquieter": 8570,
      "Ġcompanion": 8571,
      "Arrr": 8572,
      "Mat": 8573,
      "Zoom": 8574,
      "che": 8575,
      "olph": 8576,
      "Ġsipped": 8577,
      "Ġwen": 8578,
      "Ġbou": 8579,
      "aning": 8580,
      "orking": 8581,
      "Ġuna": 8582,
      "Ġweighing": 8583,
      "sty": 8584,
      "Ġshave": 8585,
      "Ġshines": 8586,
      "Ġshallow": 8587,
      "Ġshorter": 8588,
      "Ġloses": 8589,
      "Ġfrien": 8590,
      "rac": 8591,
      "Ġbond": 8592,
      "urning": 8593,
      "Ġscores": 8594,
      "Ġabo": 8595,
      "Ġchil": 8596,
      "ĠDuke": 8597,
      "Ġskies": 8598,
      "Ġoverhead": 8599,
      "aker": 8600,
      "Ġuntied": 8601,
      "Ġsnug": 8602,
      "empt": 8603,
      "Ġgliding": 8604,
      "ĠPearl": 8605,
      "Ġbluebird": 8606,
      "ĠRoo": 8607,
      "Ġforgives": 8608,
      "Ġsquinted": 8609,
      "aste": 8610,
      "Ġattempt": 8611,
      "Ġnecks": 8612,
      "Ġexpert": 8613,
      "izza": 8614,
      "ulars": 8615,
      "Beep": 8616,
      "Ġadds": 8617,
      "Ġchecking": 8618,
      "Ġcroaked": 8619,
      "Ġcheaper": 8620,
      "udolph": 8621,
      "ĠAlexa": 8622,
      "Ġotters": 8623,
      "ĠPatrick": 8624,
      "Ġbinoc": 8625,
      "Ġquarre": 8626,
      "Ġcrystals": 8627,
      "Ġchains": 8628,
      "Ġthumbs": 8629,
      "ĠCarol": 8630,
      "Ġspits": 8631,
      "Ġpedaling": 8632,
      "ĠMegan": 8633,
      "ÅĵWeÃ¢": 8634,
      "ĠAuntie": 8635,
      "Ġinstrument": 8636,
      "Ġdefeat": 8637,
      "Ġsadder": 8638,
      "ĠBrave": 8639,
      "Ġconflict": 8640,
      "Keep": 8641,
      "Ġdeclared": 8642,
      "Ġbinoculars": 8643,
      "Gre": 8644,
      "Hold": 8645,
      "Jess": 8646,
      "Put": 8647,
      "cuit": 8648,
      "da": 8649,
      "please": 8650,
      "tock": 8651,
      "Ġ5": 8652,
      "Ġaro": 8653,
      "Ġborn": 8654,
      "Ġbless": 8655,
      "Ġheels": 8656,
      "Ġpuck": 8657,
      "ĠTiger": 8658,
      "ĠSay": 8659,
      "ĠHelen": 8660,
      "Ġlik": 8661,
      "ĠBang": 8662,
      "ĠMine": 8663,
      "ĠMamma": 8664,
      "icia": 8665,
      "Ġalthough": 8666,
      "Ġflashed": 8667,
      "Ġswallow": 8668,
      "uster": 8669,
      "apot": 8670,
      "oured": 8671,
      "Ġclos": 8672,
      "Ġbund": 8673,
      "ĠJoanne": 8674,
      "Ġflowing": 8675,
      "Ġjoins": 8676,
      "ctric": 8677,
      "Ġglided": 8678,
      "Ġteapot": 8679,
      "Ġunfortunately": 8680,
      "ĠGoose": 8681,
      "ĠRuth": 8682,
      "ĠRudolph": 8683,
      "ĠNancy": 8684,
      "Ġbaa": 8685,
      "Ġstew": 8686,
      "Ġemb": 8687,
      "iggle": 8688,
      "Ġyoungest": 8689,
      "Ġbats": 8690,
      "Ġpurpose": 8691,
      "ĠOink": 8692,
      "Ġinches": 8693,
      "Ġcheerfully": 8694,
      "Ġsurv": 8695,
      "Ġrobin": 8696,
      "ĠZee": 8697,
      "Ġtentacles": 8698,
      "Ġcrawls": 8699,
      "Ġcheckout": 8700,
      "Meanwhile": 8701,
      "Ġturtles": 8702,
      "Ġapologised": 8703,
      "Ġknocking": 8704,
      "Ġencount": 8705,
      "Ġspringtime": 8706,
      "Ġdestroying": 8707,
      "ĠPeep": 8708,
      "Ġexplains": 8709,
      "Ġsprinkle": 8710,
      "ĠIsn": 8711,
      "Ġrepeats": 8712,
      "Ġfascinating": 8713,
      "Ġsimply": 8714,
      "ĠCatty": 8715,
      "Ġflaps": 8716,
      "Ġsteering": 8717,
      "Ġjuggling": 8718,
      "Ġcommunicate": 8719,
      "Ġcharacters": 8720,
      "Ġexpression": 8721,
      "Ġgallop": 8722,
      "Ġnuzzled": 8723,
      "Ġtreasured": 8724,
      "Ġyelped": 8725,
      "Ġglistening": 8726,
      "Ġbiscuit": 8727,
      "ĠRussel": 8728,
      "Ġbouqu": 8729,
      ",'": 8730,
      "Li": 8731,
      "Moo": 8732,
      "Too": 8733,
      "ae": 8734,
      "baby": 8735,
      "Ġass": 8736,
      "Ġtopp": 8737,
      "Ġhu": 8738,
      "Ġlar": 8739,
      "Ġdarl": 8740,
      "Ġcongratul": 8741,
      "ĠTri": 8742,
      "aron": 8743,
      "ĠSil": 8744,
      "Ġwhir": 8745,
      "ecul": 8746,
      "ĠAr": 8747,
      "arefully": 8748,
      "Ġsca": 8749,
      "ĠDin": 8750,
      "Ġposes": 8751,
      "Ġoverwhe": 8752,
      "Ġraked": 8753,
      "Ġaroun": 8754,
      "Ġglimmering": 8755,
      "Ġrocky": 8756,
      "Ġsweetly": 8757,
      "Ġsets": 8758,
      "Ġbowing": 8759,
      "ĠGrand": 8760,
      "Ġjoyfully": 8761,
      "Ġsmoking": 8762,
      "Ġdryer": 8763,
      "Ġdrying": 8764,
      "Ġinstantly": 8765,
      "ĠOuch": 8766,
      "ĠChuck": 8767,
      "Ġfeathered": 8768,
      "Ġminds": 8769,
      "Ġtesting": 8770,
      "Ġcurl": 8771,
      "Ġthicker": 8772,
      "Ġawa": 8773,
      "Ġwiser": 8774,
      "ĠPatch": 8775,
      "Ġmiller": 8776,
      "Ġsupported": 8777,
      "Ġmayor": 8778,
      "ĠRudy": 8779,
      "Ġstrokes": 8780,
      "ambi": 8781,
      "Ġmosquitoes": 8782,
      "Ġrails": 8783,
      "Sophia": 8784,
      "ĠPlaying": 8785,
      "Ġbeaming": 8786,
      "belle": 8787,
      "ĠAshley": 8788,
      "Ġcrafts": 8789,
      "Ġmanager": 8790,
      "Betty": 8791,
      "Ġdiscou": 8792,
      "Ġpeeped": 8793,
      "ĠClaus": 8794,
      "Ġchili": 8795,
      "Ġencountered": 8796,
      "Ġbouquet": 8797,
      "Ġdarlings": 8798,
      "Ġoverwhel": 8799,
      "Feeling": 8800,
      "Gina": 8801,
      "cases": 8802,
      "fly": 8803,
      "ibbit": 8804,
      "lish": 8805,
      "Â¦": 8806,
      "Ãĥ": 8807,
      "Ġbuddy": 8808,
      "Ġpipes": 8809,
      "Ġpecul": 8810,
      "ĠTry": 8811,
      "Ġgoo": 8812,
      "Ġgorge": 8813,
      "enn": 8814,
      "ĠSweet": 8815,
      "ĠHoney": 8816,
      "Ġriddle": 8817,
      "ĠmomÃ¢": 8818,
      "ĠBow": 8819,
      "Ġwhipped": 8820,
      "Ġwhimp": 8821,
      "ended": 8822,
      "ĠMan": 8823,
      "Ġrewards": 8824,
      "Ġlooke": 8825,
      "Ġsometime": 8826,
      "icking": 8827,
      "Ġfaith": 8828,
      "âĤ¬Â¦": 8829,
      "ĠErnie": 8830,
      "Ġblossom": 8831,
      "Ġpeas": 8832,
      "Ġpeac": 8833,
      "Ġsleds": 8834,
      "ĠJoh": 8835,
      "ĠRory": 8836,
      "Ġbitten": 8837,
      "Ġmeaning": 8838,
      "Ġsurely": 8839,
      "Ġfarms": 8840,
      "Ġmovement": 8841,
      "ĠKaitlyn": 8842,
      "Ġvisitors": 8843,
      "Ġpolar": 8844,
      "Ġelectric": 8845,
      "Ġbuckled": 8846,
      "Ġjourneys": 8847,
      "Everything": 8848,
      "Ġanswering": 8849,
      "Ġcoole": 8850,
      "Ġstirs": 8851,
      "ĠStill": 8852,
      "Ġdecoration": 8853,
      "Ġhangers": 8854,
      "Ġsharks": 8855,
      "Ġaware": 8856,
      "Ġterrified": 8857,
      "Along": 8858,
      "Alright": 8859,
      "Ġmelody": 8860,
      "Ġrescuing": 8861,
      "Ġpantry": 8862,
      "ĠTrina": 8863,
      "Ġunlocking": 8864,
      "Ġhaircuts": 8865,
      "Ġwelcoming": 8866,
      "Ġweighs": 8867,
      "Ġquacking": 8868,
      "Ġairplanes": 8869,
      "ĠVery": 8870,
      "Ġcontainer": 8871,
      "Ġventure": 8872,
      "ĠChew": 8873,
      "Ahoy": 8874,
      "Ġheavily": 8875,
      "ĠMae": 8876,
      "Freddy": 8877,
      "Ġlittl": 8878,
      "reya": 8879,
      "ĠBrian": 8880,
      "Ġswitched": 8881,
      "Ġdrowned": 8882,
      "Ġcongratulated": 8883,
      "Ġdiscouraged": 8884,
      "Ġpeculiar": 8885,
      "Ġgorgeous": 8886,
      "Jacob": 8887,
      "Rain": 8888,
      "Snow": 8889,
      "Vroom": 8890,
      "ĠOkay": 8891,
      "Ġtilted": 8892,
      "Ġfet": 8893,
      "Ġcages": 8894,
      "Ġwasting": 8895,
      "Ġnarrow": 8896,
      "llas": 8897,
      "ĠHar": 8898,
      "oto": 8899,
      "ĠBuster": 8900,
      "Ġwhizz": 8901,
      "alled": 8902,
      "ĠMin": 8903,
      "Ġnoticing": 8904,
      "ĠAva": 8905,
      "ĠJa": 8906,
      "urly": 8907,
      "ĠWas": 8908,
      "ĠWorry": 8909,
      "Ġclut": 8910,
      "Ġroast": 8911,
      "Ġroamed": 8912,
      "Ġblades": 8913,
      "ĠSamantha": 8914,
      "Ġgrat": 8915,
      "Ġchecks": 8916,
      "ÅĵHow": 8917,
      "Ġglared": 8918,
      "Ġunderwater": 8919,
      "ĠPenelope": 8920,
      "Ġunco": 8921,
      "Ġmonth": 8922,
      "Ġsweeter": 8923,
      "Ġgladly": 8924,
      "asha": 8925,
      "Ġguide": 8926,
      "Ġalongside": 8927,
      "ĠCharles": 8928,
      "Ġpractised": 8929,
      "Ġmisty": 8930,
      "Ġshrank": 8931,
      "Ġsalon": 8932,
      "Ġlizards": 8933,
      "Ġengines": 8934,
      "ĠClare": 8935,
      "Ġumbrellas": 8936,
      "Ġtraps": 8937,
      "Ġbackpacks": 8938,
      "ĠRobin": 8939,
      "Ġpressing": 8940,
      "ĠTuesdays": 8941,
      "etchup": 8942,
      "Ġcalmer": 8943,
      "ĠPippa": 8944,
      "Ġscrubbing": 8945,
      "ibly": 8946,
      "Ġchoosing": 8947,
      "ĠPoor": 8948,
      "Ġannoying": 8949,
      "Ġscenery": 8950,
      "Ġdodged": 8951,
      "Outside": 8952,
      "Ġtarget": 8953,
      "Ġpounds": 8954,
      "Ġconquered": 8955,
      "ĠWooly": 8956,
      "Ġtortoise": 8957,
      "ĠTrix": 8958,
      "Ġoverwhelmed": 8959,
      "Ġcoolest": 8960,
      "Big": 8961,
      "Bird": 8962,
      "Liz": 8963,
      "Mon": 8964,
      "bu": 8965,
      "can": 8966,
      "ker": 8967,
      "oor": 8968,
      "yl": 8969,
      "Ġic": 8970,
      "Ġtir": 8971,
      "Ġtips": 8972,
      "rest": 8973,
      "Ġhundred": 8974,
      "Ġdashed": 8975,
      "Ġcuc": 8976,
      "ĠTe": 8977,
      "omb": 8978,
      "Ġgrip": 8979,
      "ative": 8980,
      "lephant": 8981,
      "ĠHold": 8982,
      "Ġinvent": 8983,
      "aming": 8984,
      "ĠLand": 8985,
      "Ġbeast": 8986,
      "ĠweÃ¢": 8987,
      "ĠBad": 8988,
      "ĠBoun": 8989,
      "ĠMack": 8990,
      "Ġketchup": 8991,
      "ĠWhee": 8992,
      "Ġclue": 8993,
      "Ġfunn": 8994,
      "Ġability": 8995,
      "Ġlaunch": 8996,
      "ĠDee": 8997,
      "aps": 8998,
      "Ġhoot": 8999,
      "Ġmoat": 9000,
      "Ġbubbly": 9001,
      "ĠPin": 9002,
      "ĠPick": 9003,
      "Ġconcent": 9004,
      "ĠSpanish": 9005,
      "ĠRani": 9006,
      "ĠNate": 9007,
      "ĠNathan": 9008,
      "ĠKiki": 9009,
      "Ġjuiciest": 9010,
      "Ġgulp": 9011,
      "Ġguards": 9012,
      "Ġsprang": 9013,
      "Ġbenches": 9014,
      "Ġinvites": 9015,
      "Ġreturning": 9016,
      "ĠStartled": 9017,
      "Ġreminds": 9018,
      "Ġsuitcases": 9019,
      "Ġtrunks": 9020,
      "Ġburns": 9021,
      "keepers": 9022,
      "Ġsqueezes": 9023,
      "Ġapology": 9024,
      "Ġgrandbaby": 9025,
      "Ġcuddling": 9026,
      "Remy": 9027,
      "ĠTrust": 9028,
      "Ġscratching": 9029,
      "Ġappearance": 9030,
      "Ġannounced": 9031,
      "Ġstrolled": 9032,
      "ĠMaia": 9033,
      "Ġwounds": 9034,
      "Ġtypes": 9035,
      "Ġslithered": 9036,
      "ĠSmokey": 9037,
      "ĠQuackers": 9038,
      "Ġdepths": 9039,
      "Ġmagnifying": 9040,
      "Ġsoothing": 9041,
      "Ġplaydate": 9042,
      "Ġgranddaughter": 9043,
      "Ġpeacock": 9044,
      "Ġgratitude": 9045,
      "Ġconcentr": 9046,
      "Fro": 9047,
      "Kayla": 9048,
      "Lizzy": 9049,
      "Nick": 9050,
      "Ol": 9051,
      "Zoe": 9052,
      "gr": 9053,
      "just": 9054,
      "lor": 9055,
      "sa": 9056,
      "xophone": 9057,
      "ĠYum": 9058,
      "Ġicky": 9059,
      "Ġarom": 9060,
      "Ġwaking": 9061,
      "Ġfade": 9062,
      "Ġfaint": 9063,
      "ering": 9064,
      "Ġlon": 9065,
      "Ġlim": 9066,
      "Ġlull": 9067,
      "Ġdips": 9068,
      "Ġmunched": 9069,
      "idi": 9070,
      "Ġsaxophone": 9071,
      "Ġthump": 9072,
      "Ġstur": 9073,
      "Ġsha": 9074,
      "Ġshattered": 9075,
      "Ġwhined": 9076,
      "ĠMus": 9077,
      "Ġjets": 9078,
      "Ġspare": 9079,
      "ĠAlf": 9080,
      "hings": 9081,
      "ĠJasmine": 9082,
      "Ġscow": 9083,
      "Ġparks": 9084,
      "Ġstarte": 9085,
      "ĠEddie": 9086,
      "ĠColin": 9087,
      "Ġoldest": 9088,
      "bba": 9089,
      "Ġintently": 9090,
      "Ġhollow": 9091,
      "angle": 9092,
      "ĠFishy": 9093,
      "ĠWhatÃ¢": 9094,
      "Ġslapping": 9095,
      "andel": 9096,
      "andra": 9097,
      "Ġnicest": 9098,
      "Momma": 9099,
      "Ġracer": 9100,
      "Ġcheated": 9101,
      "ÅĵA": 9102,
      "ÅĵMummy": 9103,
      "ĠAndrew": 9104,
      "Ġcons": 9105,
      "ĠSprite": 9106,
      "Ġdifferently": 9107,
      "Ġhotter": 9108,
      "Ġarmor": 9109,
      "ixie": 9110,
      "ĠFlash": 9111,
      "hole": 9112,
      "Ġzooms": 9113,
      "Ġadmit": 9114,
      "Ġcarton": 9115,
      "Goodnight": 9116,
      "Ġgroups": 9117,
      "Ġsqueaky": 9118,
      "Ġpiled": 9119,
      "Ġharmony": 9120,
      "Ġpostc": 9121,
      "Ġburnt": 9122,
      "Ġdesks": 9123,
      "ĠClar": 9124,
      "Ġkangaroos": 9125,
      "Ġimproving": 9126,
      "Ġmugs": 9127,
      "Ġscolds": 9128,
      "Ġspears": 9129,
      "ĠWhoever": 9130,
      "ĠMissy": 9131,
      "Ġrows": 9132,
      "Ġinvitations": 9133,
      "ĠAmi": 9134,
      "Ġopinions": 9135,
      "Ġstroller": 9136,
      "ĠCheese": 9137,
      "Ġcommon": 9138,
      "Whiskers": 9139,
      "annon": 9140,
      "Ġflashes": 9141,
      "Ġjuggle": 9142,
      "Ġattacked": 9143,
      "Ġdetails": 9144,
      "Ġpossess": 9145,
      "ĠPaige": 9146,
      "Ġinjured": 9147,
      "ĠLaser": 9148,
      "Ġdisobey": 9149,
      "Ġcoughed": 9150,
      "Ġracers": 9151,
      "Ġpleasant": 9152,
      "Ġaboard": 9153,
      "Ġaroma": 9154,
      "!'.": 9155,
      "Gabby": 9156,
      "Mabel": 9157,
      "Nice": 9158,
      "Poppy": 9159,
      "hil": 9160,
      "mark": 9161,
      "off": 9162,
      "ĠOh": 9163,
      "Ġtin": 9164,
      "Ġtum": 9165,
      "edro": 9166,
      "Ġdou": 9167,
      "ĠToto": 9168,
      "Ġhaven": 9169,
      "igaret": 9170,
      "Ġstalk": 9171,
      "ĠBambi": 9172,
      "isty": 9173,
      "Ġshimmered": 9174,
      "Ġwhine": 9175,
      "herry": 9176,
      "elve": 9177,
[...]
